#include "magic_wand_model_data.h"

// We need to keep the data array aligned on some architectures.
#ifdef __has_attribute
#define HAVE_ATTRIBUTE(x) __has_attribute(x)
#else
#define HAVE_ATTRIBUTE(x) 0
#endif
#if HAVE_ATTRIBUTE(aligned) || (defined(__GNUC__) && !defined(__clang__))
#define DATA_ALIGN_ATTRIBUTE __attribute__((aligned(4)))
#else
#define DATA_ALIGN_ATTRIBUTE
#endif

const unsigned char g_magic_wand_model_data[] DATA_ALIGN_ATTRIBUTE = {
  // Paste the data of the char array in `src/model.cc` here
  0x1c, 0x00, 0x00, 0x00, 0x54, 0x46, 0x4c, 0x33, 0x14, 0x00, 0x20, 0x00,
  0x04, 0x00, 0x08, 0x00, 0x0c, 0x00, 0x10, 0x00, 0x14, 0x00, 0x00, 0x00,
  0x18, 0x00, 0x1c, 0x00, 0x14, 0x00, 0x00, 0x00, 0x03, 0x00, 0x00, 0x00,
  0x18, 0x00, 0x00, 0x00, 0x2c, 0x00, 0x00, 0x00, 0xd8, 0x00, 0x00, 0x00,
  0x2c, 0x00, 0x00, 0x00, 0x80, 0x00, 0x00, 0x00, 0x78, 0x00, 0x00, 0x00,
  0x05, 0x00, 0x00, 0x00, 0x28, 0x07, 0x00, 0x00, 0x44, 0x06, 0x00, 0x00,
  0xbc, 0x03, 0x00, 0x00, 0xf8, 0x02, 0x00, 0x00, 0xac, 0x01, 0x00, 0x00,
  0x01, 0x00, 0x00, 0x00, 0xd0, 0x00, 0x00, 0x00, 0x14, 0x00, 0x00, 0x00,
  0xdc, 0x32, 0x00, 0x00, 0xd8, 0x32, 0x00, 0x00, 0xd0, 0x31, 0x00, 0x00,
  0x1c, 0x31, 0x00, 0x00, 0x74, 0x30, 0x00, 0x00, 0xfc, 0x2f, 0x00, 0x00,
  0x90, 0x2f, 0x00, 0x00, 0x40, 0x13, 0x00, 0x00, 0xec, 0x11, 0x00, 0x00,
  0x10, 0x10, 0x00, 0x00, 0xb4, 0x07, 0x00, 0x00, 0xb0, 0x32, 0x00, 0x00,
  0xac, 0x32, 0x00, 0x00, 0xa8, 0x32, 0x00, 0x00, 0xa4, 0x32, 0x00, 0x00,
  0xa0, 0x32, 0x00, 0x00, 0x9c, 0x32, 0x00, 0x00, 0x98, 0x32, 0x00, 0x00,
  0x94, 0x32, 0x00, 0x00, 0x3c, 0x00, 0x00, 0x00, 0x00, 0x00, 0x00, 0x00,
  0x01, 0x00, 0x00, 0x00, 0x0c, 0x00, 0x00, 0x00, 0x08, 0x00, 0x0c, 0x00,
  0x04, 0x00, 0x08, 0x00, 0x08, 0x00, 0x00, 0x00, 0x08, 0x00, 0x00, 0x00,
  0x13, 0x00, 0x00, 0x00, 0x13, 0x00, 0x00, 0x00, 0x6d, 0x69, 0x6e, 0x5f,
  0x72, 0x75, 0x6e, 0x74, 0x69, 0x6d, 0x65, 0x5f, 0x76, 0x65, 0x72, 0x73,
  0x69, 0x6f, 0x6e, 0x00, 0xb6, 0xce, 0xff, 0xff, 0x04, 0x00, 0x00, 0x00,
  0x10, 0x00, 0x00, 0x00, 0x31, 0x2e, 0x35, 0x2e, 0x30, 0x00, 0x00, 0x00,
  0x00, 0x00, 0x00, 0x00, 0x00, 0x00, 0x00, 0x00, 0x0f, 0x00, 0x00, 0x00,
  0x4d, 0x4c, 0x49, 0x52, 0x20, 0x43, 0x6f, 0x6e, 0x76, 0x65, 0x72, 0x74,
  0x65, 0x64, 0x2e, 0x00, 0x00, 0x00, 0x0e, 0x00, 0x18, 0x00, 0x04, 0x00,
  0x08, 0x00, 0x0c, 0x00, 0x10, 0x00, 0x14, 0x00, 0x0e, 0x00, 0x00, 0x00,
  0x14, 0x00, 0x00, 0x00, 0x5c, 0x00, 0x00, 0x00, 0x60, 0x00, 0x00, 0x00,
  0x64, 0x00, 0x00, 0x00, 0x84, 0x00, 0x00, 0x00, 0x12, 0x00, 0x00, 0x00,
  0x9c, 0x31, 0x00, 0x00, 0x2c, 0x31, 0x00, 0x00, 0x88, 0x30, 0x00, 0x00,
  0xe0, 0x2f, 0x00, 0x00, 0x38, 0x2f, 0x00, 0x00, 0xd4, 0x2e, 0x00, 0x00,
  0x6c, 0x2e, 0x00, 0x00, 0x18, 0x12, 0x00, 0x00, 0xbc, 0x10, 0x00, 0x00,
  0xe0, 0x0e, 0x00, 0x00, 0x0c, 0x06, 0x00, 0x00, 0x28, 0x05, 0x00, 0x00,
  0xe8, 0x03, 0x00, 0x00, 0x3c, 0x03, 0x00, 0x00, 0x98, 0x02, 0x00, 0x00,
  0xd4, 0x01, 0x00, 0x00, 0x10, 0x01, 0x00, 0x00, 0x84, 0x00, 0x00, 0x00,
  0x01, 0x00, 0x00, 0x00, 0x00, 0x00, 0x00, 0x00, 0x01, 0x00, 0x00, 0x00,
  0x11, 0x00, 0x00, 0x00, 0x08, 0x00, 0x00, 0x00, 0x74, 0x05, 0x00, 0x00,
  0x94, 0x04, 0x00, 0x00, 0x78, 0x03, 0x00, 0x00, 0xbc, 0x02, 0x00, 0x00,
  0x30, 0x02, 0x00, 0x00, 0x50, 0x01, 0x00, 0x00, 0xa8, 0x00, 0x00, 0x00,
  0x10, 0x00, 0x00, 0x00, 0x04, 0x00, 0x00, 0x00, 0x6d, 0x61, 0x69, 0x6e,
  0x00, 0x00, 0x00, 0x00, 0x7a, 0xff, 0xff, 0xff, 0x00, 0x00, 0x00, 0x09,
  0x04, 0x00, 0x00, 0x00, 0x1c, 0x00, 0x00, 0x00, 0x10, 0x00, 0x00, 0x00,
  0x04, 0x00, 0x00, 0x00, 0xb2, 0xcf, 0xff, 0xff, 0x00, 0x00, 0x80, 0x3f,
  0x01, 0x00, 0x00, 0x00, 0x11, 0x00, 0x00, 0x00, 0x01, 0x00, 0x00, 0x00,
  0x10, 0x00, 0x00, 0x00, 0xa0, 0xfa, 0xff, 0xff, 0x19, 0x00, 0x00, 0x00,
  0x00, 0x00, 0x00, 0x19, 0x01, 0x00, 0x00, 0x00, 0x40, 0xcf, 0xff, 0xff,
  0x14, 0x00, 0x00, 0x00, 0x12, 0x00, 0x00, 0x00, 0x18, 0x00, 0x00, 0x00,
  0x30, 0x00, 0x00, 0x00, 0x20, 0x00, 0x00, 0x00, 0x02, 0x00, 0x00, 0x00,
  0x01, 0x00, 0x00, 0x00, 0x04, 0x00, 0x00, 0x00, 0x08, 0x00, 0x00, 0x00,
  0x49, 0x64, 0x65, 0x6e, 0x74, 0x69, 0x74, 0x79, 0x00, 0x00, 0x00, 0x00,
  0x02, 0x00, 0x00, 0x00, 0xff, 0xff, 0xff, 0xff, 0x04, 0x00, 0x00, 0x00,
  0x24, 0xd0, 0xff, 0xff, 0x00, 0x00, 0x0e, 0x00, 0x18, 0x00, 0x08, 0x00,
  0x0c, 0x00, 0x10, 0x00, 0x07, 0x00, 0x14, 0x00, 0x0e, 0x00, 0x00, 0x00,
  0x00, 0x00, 0x00, 0x08, 0x03, 0x00, 0x00, 0x00, 0x18, 0x00, 0x00, 0x00,
  0x0c, 0x00, 0x00, 0x00, 0x04, 0x00, 0x00, 0x00, 0x40, 0xcf, 0xff, 0xff,
  0x01, 0x00, 0x00, 0x00, 0x10, 0x00, 0x00, 0x00, 0x03, 0x00, 0x00, 0x00,
  0x0f, 0x00, 0x00, 0x00, 0x07, 0x00, 0x00, 0x00, 0x04, 0x00, 0x00, 0x00,
  0xc8, 0xcf, 0xff, 0xff, 0x14, 0x00, 0x00, 0x00, 0x11, 0x00, 0x00, 0x00,
  0x18, 0x00, 0x00, 0x00, 0x5c, 0x00, 0x00, 0x00, 0x4c, 0x00, 0x00, 0x00,
  0x02, 0x00, 0x00, 0x00, 0x01, 0x00, 0x00, 0x00, 0x04, 0x00, 0x00, 0x00,
  0x34, 0x00, 0x00, 0x00, 0x73, 0x65, 0x71, 0x75, 0x65, 0x6e, 0x74, 0x69,
  0x61, 0x6c, 0x2f, 0x64, 0x65, 0x6e, 0x73, 0x65, 0x5f, 0x31, 0x2f, 0x4d,
  0x61, 0x74, 0x4d, 0x75, 0x6c, 0x3b, 0x73, 0x65, 0x71, 0x75, 0x65, 0x6e,
  0x74, 0x69, 0x61, 0x6c, 0x2f, 0x64, 0x65, 0x6e, 0x73, 0x65, 0x5f, 0x31,
  0x2f, 0x42, 0x69, 0x61, 0x73, 0x41, 0x64, 0x64, 0x00, 0x00, 0x00, 0x00,
  0x02, 0x00, 0x00, 0x00, 0xff, 0xff, 0xff, 0xff, 0x04, 0x00, 0x00, 0x00,
  0xc8, 0xcf, 0xff, 0xff, 0xda, 0xfc, 0xff, 0xff, 0x00, 0x00, 0x00, 0x08,
  0x03, 0x00, 0x00, 0x00, 0x24, 0x00, 0x00, 0x00, 0x18, 0x00, 0x00, 0x00,
  0x0c, 0x00, 0x00, 0x00, 0x00, 0x00, 0x06, 0x00, 0x08, 0x00, 0x07, 0x00,
  0x06, 0x00, 0x00, 0x00, 0x00, 0x00, 0x00, 0x01, 0x01, 0x00, 0x00, 0x00,
  0x0f, 0x00, 0x00, 0x00, 0x03, 0x00, 0x00, 0x00, 0x0e, 0x00, 0x00, 0x00,
  0x06, 0x00, 0x00, 0x00, 0x03, 0x00, 0x00, 0x00, 0xe8, 0xfb, 0xff, 0xff,
  0x09, 0x00, 0x00, 0x00, 0x00, 0x00, 0x00, 0x09, 0x01, 0x00, 0x00, 0x00,
  0x88, 0xd0, 0xff, 0xff, 0x14, 0x00, 0x00, 0x00, 0x10, 0x00, 0x00, 0x00,
  0x18, 0x00, 0x00, 0x00, 0x6c, 0x00, 0x00, 0x00, 0x5c, 0x00, 0x00, 0x00,
  0x02, 0x00, 0x00, 0x00, 0x01, 0x00, 0x00, 0x00, 0x10, 0x00, 0x00, 0x00,
  0x46, 0x00, 0x00, 0x00, 0x73, 0x65, 0x71, 0x75, 0x65, 0x6e, 0x74, 0x69,
  0x61, 0x6c, 0x2f, 0x64, 0x65, 0x6e, 0x73, 0x65, 0x2f, 0x4d, 0x61, 0x74,
  0x4d, 0x75, 0x6c, 0x3b, 0x73, 0x65, 0x71, 0x75, 0x65, 0x6e, 0x74, 0x69,
  0x61, 0x6c, 0x2f, 0x64, 0x65, 0x6e, 0x73, 0x65, 0x2f, 0x52, 0x65, 0x6c,
  0x75, 0x3b, 0x73, 0x65, 0x71, 0x75, 0x65, 0x6e, 0x74, 0x69, 0x61, 0x6c,
  0x2f, 0x64, 0x65, 0x6e, 0x73, 0x65, 0x2f, 0x42, 0x69, 0x61, 0x73, 0x41,
  0x64, 0x64, 0x00, 0x00, 0x02, 0x00, 0x00, 0x00, 0xff, 0xff, 0xff, 0xff,
  0x10, 0x00, 0x00, 0x00, 0xa8, 0xd1, 0xff, 0xff, 0x00, 0x00, 0x0a, 0x00,
  0x10, 0x00, 0x04, 0x00, 0x08, 0x00, 0x0c, 0x00, 0x0a, 0x00, 0x00, 0x00,
  0x02, 0x00, 0x00, 0x00, 0x10, 0x00, 0x00, 0x00, 0x04, 0x00, 0x00, 0x00,
  0x01, 0x00, 0x00, 0x00, 0x0e, 0x00, 0x00, 0x00, 0x02, 0x00, 0x00, 0x00,
  0x0d, 0x00, 0x00, 0x00, 0x05, 0x00, 0x00, 0x00, 0xa8, 0xfc, 0xff, 0xff,
  0x16, 0x00, 0x00, 0x00, 0x00, 0x00, 0x00, 0x16, 0x01, 0x00, 0x00, 0x00,
  0x48, 0xd1, 0xff, 0xff, 0x14, 0x00, 0x00, 0x00, 0x0f, 0x00, 0x00, 0x00,
  0x18, 0x00, 0x00, 0x00, 0x40, 0x00, 0x00, 0x00, 0x30, 0x00, 0x00, 0x00,
  0x02, 0x00, 0x00, 0x00, 0x01, 0x00, 0x00, 0x00, 0x70, 0x00, 0x00, 0x00,
  0x1a, 0x00, 0x00, 0x00, 0x73, 0x65, 0x71, 0x75, 0x65, 0x6e, 0x74, 0x69,
  0x61, 0x6c, 0x2f, 0x66, 0x6c, 0x61, 0x74, 0x74, 0x65, 0x6e, 0x2f, 0x52,
  0x65, 0x73, 0x68, 0x61, 0x70, 0x65, 0x00, 0x00, 0x02, 0x00, 0x00, 0x00,
  0xff, 0xff, 0xff, 0xff, 0x70, 0x00, 0x00, 0x00, 0x2c, 0xd1, 0xff, 0xff,
  0x3e, 0xfe, 0xff, 0xff, 0x00, 0x00, 0x00, 0x05, 0x01, 0x00, 0x00, 0x00,
  0x38, 0x00, 0x00, 0x00, 0x2c, 0x00, 0x00, 0x00, 0x14, 0x00, 0x00, 0x00,
  0x00, 0x00, 0x0e, 0x00, 0x14, 0x00, 0x00, 0x00, 0x10, 0x00, 0x0c, 0x00,
  0x08, 0x00, 0x04, 0x00, 0x0e, 0x00, 0x00, 0x00, 0x03, 0x00, 0x00, 0x00,
  0x01, 0x00, 0x00, 0x00, 0x03, 0x00, 0x00, 0x00, 0x01, 0x00, 0x00, 0x00,
  0x01, 0x00, 0x00, 0x00, 0x0d, 0x00, 0x00, 0x00, 0x01, 0x00, 0x00, 0x00,
  0x0c, 0x00, 0x00, 0x00, 0xe8, 0xd1, 0xff, 0xff, 0x14, 0x00, 0x00, 0x00,
  0x0e, 0x00, 0x00, 0x00, 0x20, 0x00, 0x00, 0x00, 0x58, 0x00, 0x00, 0x00,
  0x40, 0x00, 0x00, 0x00, 0x04, 0x00, 0x00, 0x00, 0x01, 0x00, 0x00, 0x00,
  0x07, 0x00, 0x00, 0x00, 0x01, 0x00, 0x00, 0x00, 0x10, 0x00, 0x00, 0x00,
  0x22, 0x00, 0x00, 0x00, 0x73, 0x65, 0x71, 0x75, 0x65, 0x6e, 0x74, 0x69,
  0x61, 0x6c, 0x2f, 0x6d, 0x61, 0x78, 0x5f, 0x70, 0x6f, 0x6f, 0x6c, 0x69,
  0x6e, 0x67, 0x32, 0x64, 0x5f, 0x31, 0x2f, 0x4d, 0x61, 0x78, 0x50, 0x6f,
  0x6f, 0x6c, 0x00, 0x00, 0x04, 0x00, 0x00, 0x00, 0xff, 0xff, 0xff, 0xff,
  0x07, 0x00, 0x00, 0x00, 0x01, 0x00, 0x00, 0x00, 0x10, 0x00, 0x00, 0x00,
  0xe4, 0xd1, 0xff, 0xff, 0x1a, 0xfe, 0xff, 0xff, 0x00, 0x00, 0x00, 0x01,
  0x24, 0x00, 0x00, 0x00, 0x18, 0x00, 0x00, 0x00, 0x04, 0x00, 0x00, 0x00,
  0x0c, 0xfe, 0xff, 0xff, 0x01, 0x00, 0x00, 0x00, 0x01, 0x00, 0x00, 0x00,
  0x00, 0x00, 0x00, 0x01, 0x01, 0x00, 0x00, 0x00, 0x0c, 0x00, 0x00, 0x00,
  0x03, 0x00, 0x00, 0x00, 0x0b, 0x00, 0x00, 0x00, 0x09, 0x00, 0x00, 0x00,
  0x02, 0x00, 0x00, 0x00, 0x90, 0xd2, 0xff, 0xff, 0x14, 0x00, 0x00, 0x00,
  0x0d, 0x00, 0x00, 0x00, 0x20, 0x00, 0x00, 0x00, 0xb8, 0x00, 0x00, 0x00,
  0xa0, 0x00, 0x00, 0x00, 0x04, 0x00, 0x00, 0x00, 0x01, 0x00, 0x00, 0x00,
  0x15, 0x00, 0x00, 0x00, 0x01, 0x00, 0x00, 0x00, 0x10, 0x00, 0x00, 0x00,
  0x83, 0x00, 0x00, 0x00, 0x73, 0x65, 0x71, 0x75, 0x65, 0x6e, 0x74, 0x69,
  0x61, 0x6c, 0x2f, 0x63, 0x6f, 0x6e, 0x76, 0x32, 0x64, 0x5f, 0x31, 0x2f,
  0x52, 0x65, 0x6c, 0x75, 0x3b, 0x73, 0x65, 0x71, 0x75, 0x65, 0x6e, 0x74,
  0x69, 0x61, 0x6c, 0x2f, 0x63, 0x6f, 0x6e, 0x76, 0x32, 0x64, 0x5f, 0x31,
  0x2f, 0x42, 0x69, 0x61, 0x73, 0x41, 0x64, 0x64, 0x3b, 0x73, 0x65, 0x71,
  0x75, 0x65, 0x6e, 0x74, 0x69, 0x61, 0x6c, 0x2f, 0x63, 0x6f, 0x6e, 0x76,
  0x32, 0x64, 0x5f, 0x31, 0x2f, 0x43, 0x6f, 0x6e, 0x76, 0x32, 0x44, 0x3b,
  0x73, 0x65, 0x71, 0x75, 0x65, 0x6e, 0x74, 0x69, 0x61, 0x6c, 0x2f, 0x63,
  0x6f, 0x6e, 0x76, 0x32, 0x64, 0x5f, 0x31, 0x2f, 0x42, 0x69, 0x61, 0x73,
  0x41, 0x64, 0x64, 0x2f, 0x52, 0x65, 0x61, 0x64, 0x56, 0x61, 0x72, 0x69,
  0x61, 0x62, 0x6c, 0x65, 0x4f, 0x70, 0x2f, 0x72, 0x65, 0x73, 0x6f, 0x75,
  0x72, 0x63, 0x65, 0x00, 0x04, 0x00, 0x00, 0x00, 0xff, 0xff, 0xff, 0xff,
  0x15, 0x00, 0x00, 0x00, 0x01, 0x00, 0x00, 0x00, 0x10, 0x00, 0x00, 0x00,
  0xfc, 0xd3, 0xff, 0xff, 0x00, 0x00, 0x0e, 0x00, 0x1a, 0x00, 0x08, 0x00,
  0x0c, 0x00, 0x10, 0x00, 0x07, 0x00, 0x14, 0x00, 0x0e, 0x00, 0x00, 0x00,
  0x00, 0x00, 0x00, 0x05, 0x01, 0x00, 0x00, 0x00, 0x3c, 0x00, 0x00, 0x00,
  0x30, 0x00, 0x00, 0x00, 0x14, 0x00, 0x00, 0x00, 0x00, 0x00, 0x0e, 0x00,
  0x18, 0x00, 0x17, 0x00, 0x10, 0x00, 0x0c, 0x00, 0x08, 0x00, 0x04, 0x00,
  0x0e, 0x00, 0x00, 0x00, 0x03, 0x00, 0x00, 0x00, 0x03, 0x00, 0x00, 0x00,
  0x03, 0x00, 0x00, 0x00, 0x03, 0x00, 0x00, 0x00, 0x00, 0x00, 0x00, 0x01,
  0x01, 0x00, 0x00, 0x00, 0x0b, 0x00, 0x00, 0x00, 0x01, 0x00, 0x00, 0x00,
  0x0a, 0x00, 0x00, 0x00, 0x2c, 0xff, 0xff, 0xff, 0x11, 0x00, 0x00, 0x00,
  0x00, 0x00, 0x00, 0x11, 0x01, 0x00, 0x00, 0x00, 0xcc, 0xd3, 0xff, 0xff,
  0x14, 0x00, 0x00, 0x00, 0x0c, 0x00, 0x00, 0x00, 0x20, 0x00, 0x00, 0x00,
  0x58, 0x00, 0x00, 0x00, 0x40, 0x00, 0x00, 0x00, 0x04, 0x00, 0x00, 0x00,
  0x01, 0x00, 0x00, 0x00, 0x15, 0x00, 0x00, 0x00, 0x01, 0x00, 0x00, 0x00,
  0x08, 0x00, 0x00, 0x00, 0x20, 0x00, 0x00, 0x00, 0x73, 0x65, 0x71, 0x75,
  0x65, 0x6e, 0x74, 0x69, 0x61, 0x6c, 0x2f, 0x6d, 0x61, 0x78, 0x5f, 0x70,
  0x6f, 0x6f, 0x6c, 0x69, 0x6e, 0x67, 0x32, 0x64, 0x2f, 0x4d, 0x61, 0x78,
  0x50, 0x6f, 0x6f, 0x6c, 0x00, 0x00, 0x00, 0x00, 0x04, 0x00, 0x00, 0x00,
  0xff, 0xff, 0xff, 0xff, 0x15, 0x00, 0x00, 0x00, 0x01, 0x00, 0x00, 0x00,
  0x08, 0x00, 0x00, 0x00, 0xd8, 0xd4, 0xff, 0xff, 0x00, 0x00, 0x0e, 0x00,
  0x14, 0x00, 0x00, 0x00, 0x08, 0x00, 0x0c, 0x00, 0x07, 0x00, 0x10, 0x00,
  0x0e, 0x00, 0x00, 0x00, 0x00, 0x00, 0x00, 0x01, 0x30, 0x00, 0x00, 0x00,
  0x24, 0x00, 0x00, 0x00, 0x10, 0x00, 0x00, 0x00, 0x0c, 0x00, 0x10, 0x00,
  0x00, 0x00, 0x04, 0x00, 0x08, 0x00, 0x0f, 0x00, 0x0c, 0x00, 0x00, 0x00,
  0x01, 0x00, 0x00, 0x00, 0x01, 0x00, 0x00, 0x00, 0x00, 0x00, 0x00, 0x01,
  0x01, 0x00, 0x00, 0x00, 0x0a, 0x00, 0x00, 0x00, 0x03, 0x00, 0x00, 0x00,
  0x00, 0x00, 0x00, 0x00, 0x08, 0x00, 0x00, 0x00, 0x01, 0x00, 0x00, 0x00,
  0x0c, 0x00, 0x10, 0x00, 0x0b, 0x00, 0x00, 0x00, 0x0c, 0x00, 0x04, 0x00,
  0x0c, 0x00, 0x00, 0x00, 0x03, 0x00, 0x00, 0x00, 0x00, 0x00, 0x00, 0x03,
  0x01, 0x00, 0x00, 0x00, 0xac, 0xd4, 0xff, 0xff, 0x14, 0x00, 0x00, 0x00,
  0x0b, 0x00, 0x00, 0x00, 0x20, 0x00, 0x00, 0x00, 0xb0, 0x00, 0x00, 0x00,
  0x98, 0x00, 0x00, 0x00, 0x04, 0x00, 0x00, 0x00, 0x01, 0x00, 0x00, 0x00,
  0x40, 0x00, 0x00, 0x00, 0x03, 0x00, 0x00, 0x00, 0x08, 0x00, 0x00, 0x00,
  0x7b, 0x00, 0x00, 0x00, 0x73, 0x65, 0x71, 0x75, 0x65, 0x6e, 0x74, 0x69,
  0x61, 0x6c, 0x2f, 0x63, 0x6f, 0x6e, 0x76, 0x32, 0x64, 0x2f, 0x52, 0x65,
  0x6c, 0x75, 0x3b, 0x73, 0x65, 0x71, 0x75, 0x65, 0x6e, 0x74, 0x69, 0x61,
  0x6c, 0x2f, 0x63, 0x6f, 0x6e, 0x76, 0x32, 0x64, 0x2f, 0x42, 0x69, 0x61,
  0x73, 0x41, 0x64, 0x64, 0x3b, 0x73, 0x65, 0x71, 0x75, 0x65, 0x6e, 0x74,
  0x69, 0x61, 0x6c, 0x2f, 0x63, 0x6f, 0x6e, 0x76, 0x32, 0x64, 0x2f, 0x43,
  0x6f, 0x6e, 0x76, 0x32, 0x44, 0x3b, 0x73, 0x65, 0x71, 0x75, 0x65, 0x6e,
  0x74, 0x69, 0x61, 0x6c, 0x2f, 0x63, 0x6f, 0x6e, 0x76, 0x32, 0x64, 0x2f,
  0x42, 0x69, 0x61, 0x73, 0x41, 0x64, 0x64, 0x2f, 0x52, 0x65, 0x61, 0x64,
  0x56, 0x61, 0x72, 0x69, 0x61, 0x62, 0x6c, 0x65, 0x4f, 0x70, 0x2f, 0x72,
  0x65, 0x73, 0x6f, 0x75, 0x72, 0x63, 0x65, 0x00, 0x04, 0x00, 0x00, 0x00,
  0xff, 0xff, 0xff, 0xff, 0x40, 0x00, 0x00, 0x00, 0x03, 0x00, 0x00, 0x00,
  0x08, 0x00, 0x00, 0x00, 0x00, 0xd5, 0xff, 0xff, 0x0a, 0xd6, 0xff, 0xff,
  0x04, 0x00, 0x00, 0x00, 0x00, 0x08, 0x00, 0x00, 0x91, 0x2a, 0x62, 0xbd,
  0x96, 0x88, 0x03, 0xbf, 0xd2, 0x02, 0x38, 0xbd, 0x52, 0x72, 0xe8, 0x3e,
  0x2a, 0x64, 0xc4, 0xbe, 0x9f, 0xf7, 0x86, 0x3e, 0xd9, 0x66, 0xe5, 0xbe,
  0x17, 0x2d, 0x0e, 0xbf, 0x72, 0x54, 0x76, 0xbd, 0xb1, 0xb9, 0xfc, 0xbd,
  0x9b, 0xb1, 0x80, 0x3d, 0x6c, 0x14, 0xe7, 0xbd, 0x1d, 0x09, 0xa6, 0xbd,
  0xa6, 0xf7, 0x95, 0xbc, 0xb5, 0x16, 0xd5, 0xbd, 0x2f, 0x24, 0xd7, 0xbe,
  0x79, 0x01, 0xd2, 0xbc, 0x17, 0x74, 0xc3, 0xbc, 0x9c, 0x54, 0x96, 0x3d,
  0x83, 0x7b, 0x5e, 0xbe, 0x1f, 0x80, 0x90, 0x3d, 0x7d, 0x1a, 0x7f, 0xbc,
  0x92, 0x35, 0x68, 0xbd, 0xcf, 0xaa, 0x46, 0xbd, 0xa6, 0x1e, 0xc8, 0xbc,
  0x1a, 0x32, 0xcc, 0x3d, 0xa3, 0x18, 0xa4, 0x3d, 0x51, 0x8d, 0xa1, 0xbe,
  0x68, 0x77, 0xa7, 0x3e, 0x91, 0xa6, 0xac, 0x3c, 0x3f, 0x18, 0xc3, 0xbc,
  0x65, 0xe6, 0x12, 0xbe, 0x6a, 0x44, 0x51, 0xbe, 0x2c, 0xed, 0x26, 0x3e,
  0xff, 0x4d, 0x8e, 0xbd, 0x18, 0x1d, 0x32, 0xbd, 0x77, 0x92, 0xad, 0x3d,
  0x55, 0x6a, 0x68, 0x3e, 0x28, 0xfa, 0xce, 0xbe, 0x44, 0x90, 0x05, 0xbe,
  0x5c, 0xe5, 0xcc, 0xbd, 0x71, 0xef, 0x36, 0xbd, 0xef, 0xe0, 0x37, 0xbe,
  0x79, 0x38, 0x89, 0xbd, 0xd8, 0xd0, 0xc4, 0x3c, 0x6d, 0x59, 0x9e, 0x3e,
  0x02, 0xb8, 0x0d, 0xbf, 0x2a, 0xd6, 0xd6, 0x3e, 0xdf, 0xe3, 0x02, 0xbe,
  0x37, 0xad, 0x8a, 0x3d, 0x57, 0xe9, 0x72, 0x3e, 0x2e, 0xde, 0x8d, 0xbd,
  0x3e, 0x58, 0x0d, 0x3e, 0xa2, 0xac, 0xb8, 0x3d, 0x30, 0x55, 0xd3, 0xbe,
  0xe8, 0xf7, 0x84, 0x3d, 0x83, 0x29, 0xa7, 0xbd, 0x21, 0x69, 0x16, 0xbd,
  0xa3, 0x27, 0x7b, 0x3c, 0x79, 0x8a, 0x13, 0xbd, 0xa8, 0xde, 0xbc, 0x3e,
  0x69, 0x29, 0x9e, 0x3e, 0xad, 0xca, 0x8f, 0xbe, 0x20, 0xa9, 0xc0, 0x3c,
  0xb2, 0xa7, 0x1e, 0xbe, 0x1d, 0x9f, 0xa5, 0xbe, 0x3d, 0x11, 0x80, 0xbe,
  0x2b, 0xd7, 0x89, 0xbe, 0x88, 0xe5, 0x25, 0xbe, 0xdf, 0x6e, 0x61, 0xbe,
  0x77, 0x38, 0xa7, 0xbd, 0x6f, 0xf8, 0x56, 0xbe, 0xbb, 0xc7, 0x0f, 0xbe,
  0xe1, 0xa8, 0xb2, 0xbe, 0xbb, 0xea, 0x1c, 0xbe, 0xa1, 0x3a, 0xb1, 0xbd,
  0x00, 0x6b, 0x27, 0xbe, 0x25, 0x6c, 0xf3, 0xbc, 0x2d, 0x70, 0x7c, 0xbd,
  0xc5, 0x0c, 0x23, 0xbe, 0x89, 0xdb, 0x7f, 0xbd, 0x38, 0xb0, 0xf2, 0x3d,
  0x2e, 0xc3, 0x57, 0x3e, 0xf9, 0x8e, 0x4b, 0xbc, 0xef, 0x50, 0xe8, 0xbc,
  0x75, 0x8c, 0xac, 0x3e, 0xb9, 0x4c, 0x94, 0x3c, 0xc3, 0xb6, 0x96, 0xbd,
  0xf5, 0xa9, 0x81, 0xbe, 0x62, 0xb2, 0x5c, 0x3e, 0x0d, 0x45, 0x9c, 0x3e,
  0x5b, 0xc1, 0x50, 0x3e, 0x29, 0x5a, 0x24, 0xbc, 0x49, 0x85, 0x34, 0x3e,
  0x9a, 0x7b, 0x55, 0x3d, 0x20, 0x7b, 0x48, 0xbe, 0xf5, 0xfe, 0x5d, 0xbe,
  0xc0, 0xac, 0x8e, 0xbd, 0x12, 0xf0, 0xc6, 0x3d, 0x12, 0x64, 0x7a, 0x3e,
  0xfa, 0x6f, 0x20, 0xbf, 0x7a, 0xa2, 0x77, 0x3e, 0xee, 0x44, 0x57, 0xbf,
  0xee, 0x2d, 0xba, 0x3e, 0xe8, 0x4b, 0x1f, 0xbe, 0xfe, 0x8b, 0xb2, 0xbe,
  0x5d, 0xa6, 0x34, 0x3e, 0x49, 0x6d, 0xb2, 0xbc, 0x7f, 0x04, 0xfd, 0xbb,
  0xb1, 0x97, 0x88, 0x3e, 0x90, 0xfd, 0x11, 0xbe, 0x2e, 0x10, 0xa6, 0xbe,
  0x89, 0xbb, 0xbd, 0xbe, 0xe7, 0x04, 0x99, 0xbd, 0x28, 0xae, 0x64, 0x3d,
  0xfd, 0x60, 0xdf, 0xbd, 0xd8, 0xfd, 0xa1, 0x3c, 0x3b, 0xd0, 0x8b, 0x3d,
  0xd1, 0xc1, 0xa1, 0x3d, 0x27, 0x3a, 0xed, 0xbc, 0x5e, 0x11, 0x2b, 0xbf,
  0x35, 0x55, 0xb5, 0x3d, 0x38, 0x93, 0xc6, 0xbe, 0xdd, 0x54, 0xab, 0xbe,
  0x66, 0x1a, 0xd0, 0xbd, 0xa5, 0xc2, 0x16, 0xbf, 0x4d, 0x79, 0x3a, 0x3e,
  0xfd, 0xa6, 0x25, 0x3d, 0x4b, 0x8c, 0x39, 0xbe, 0x5f, 0x75, 0x06, 0xbf,
  0x97, 0xb3, 0x05, 0xbe, 0xce, 0x10, 0xcd, 0xbe, 0xc5, 0x7e, 0x84, 0xbd,
  0x8e, 0xa4, 0x45, 0xbe, 0xf2, 0xa0, 0xc3, 0x3c, 0xf0, 0xfe, 0x76, 0xbe,
  0x11, 0x0f, 0xc1, 0xbe, 0x51, 0x79, 0x09, 0x3e, 0xe8, 0x46, 0xbd, 0xbc,
  0x2a, 0x44, 0x9d, 0xbd, 0xff, 0x2f, 0x16, 0xbd, 0x80, 0xa1, 0x97, 0x3d,
  0x1f, 0x02, 0x17, 0x3d, 0x80, 0x06, 0x8c, 0xbe, 0xe7, 0x76, 0xa5, 0xbe,
  0x9a, 0x6b, 0x03, 0x3f, 0xa5, 0xdd, 0x83, 0x3d, 0x30, 0xeb, 0x05, 0x3e,
  0x84, 0xde, 0x06, 0xbe, 0x3f, 0x3c, 0x0e, 0x3d, 0xb9, 0x73, 0xac, 0xbc,
  0x4a, 0x98, 0x68, 0xbd, 0x6f, 0x87, 0x3f, 0x3c, 0x0c, 0x1d, 0x90, 0x3e,
  0x5a, 0x51, 0x8a, 0xbd, 0x60, 0x48, 0x12, 0xbd, 0x4a, 0x2a, 0xc2, 0x3b,
  0x37, 0x12, 0x67, 0xbe, 0x4f, 0x1a, 0x48, 0xbd, 0xfe, 0xf4, 0x44, 0xbd,
  0x7c, 0xc0, 0x43, 0x3d, 0x9b, 0x9f, 0x82, 0xbe, 0xc7, 0x39, 0xf6, 0xbd,
  0xe4, 0xd3, 0xdf, 0xbd, 0x9c, 0xec, 0x3e, 0x3c, 0x71, 0xcc, 0x8d, 0xbe,
  0x2e, 0x5e, 0xc5, 0xbf, 0xe4, 0x8b, 0x14, 0x3e, 0xf4, 0x6a, 0x29, 0x3e,
  0xda, 0x26, 0x33, 0x3d, 0xb7, 0x33, 0xb9, 0x3d, 0x2c, 0x70, 0x3c, 0xbe,
  0xd8, 0x1b, 0xc6, 0xbc, 0xa0, 0xcd, 0xc0, 0xbd, 0x4b, 0x96, 0x93, 0xbf,
  0x51, 0x1d, 0x3d, 0xbe, 0x9f, 0x0d, 0x3e, 0xbd, 0xa6, 0x93, 0x73, 0xbe,
  0xc2, 0x1c, 0x30, 0x3e, 0x3f, 0x21, 0xa7, 0xbe, 0x72, 0x82, 0x65, 0x3e,
  0xf8, 0x6d, 0xf7, 0xbe, 0xe9, 0xb2, 0x9d, 0xbf, 0x9a, 0xd1, 0x60, 0x3e,
  0x24, 0xbf, 0xd0, 0x3d, 0x05, 0x29, 0x03, 0xbe, 0x1e, 0xc9, 0xd5, 0x3d,
  0x91, 0x4b, 0x73, 0xbe, 0x07, 0xe8, 0x5d, 0x3e, 0x34, 0x9b, 0xba, 0xbe,
  0x38, 0xfb, 0xb7, 0xbf, 0xf2, 0x61, 0xd2, 0xbd, 0xd0, 0xb5, 0x26, 0xbe,
  0xbc, 0x0f, 0xf8, 0xbc, 0x72, 0x12, 0x9f, 0x3d, 0x41, 0xb8, 0x02, 0x3d,
  0x08, 0x85, 0x65, 0xbc, 0x56, 0x67, 0x1f, 0xbe, 0x4d, 0x54, 0xaf, 0x3c,
  0x8b, 0x55, 0xc0, 0x3b, 0x1e, 0x45, 0x2d, 0xbe, 0xbf, 0xc5, 0x46, 0x3d,
  0x0d, 0x1a, 0xff, 0x3d, 0x74, 0xca, 0x1f, 0x3e, 0xab, 0x31, 0x0d, 0x3e,
  0xb9, 0xf1, 0x76, 0x3d, 0xa5, 0x66, 0xde, 0x3d, 0x14, 0x99, 0xf1, 0xbd,
  0xb0, 0xe7, 0x0f, 0xbe, 0x2c, 0x70, 0x83, 0x3d, 0x07, 0xf8, 0xbe, 0x3d,
  0x7b, 0xfb, 0x76, 0x3d, 0x2f, 0x86, 0x14, 0xbd, 0x14, 0x81, 0xd5, 0x3a,
  0x3b, 0x3e, 0x0c, 0xbc, 0xe6, 0x89, 0xd7, 0x3e, 0xb9, 0x91, 0xee, 0xbd,
  0xbc, 0xa0, 0xa4, 0xbc, 0x9a, 0xdf, 0xa3, 0xbb, 0xce, 0xe1, 0xa0, 0x3d,
  0x05, 0x16, 0x1a, 0x3c, 0x4b, 0x4c, 0x85, 0x3c, 0x0a, 0xed, 0x05, 0x3e,
  0x57, 0x16, 0x47, 0x3d, 0x36, 0x08, 0x56, 0xbb, 0x82, 0xa4, 0x52, 0x3e,
  0x36, 0x77, 0xbe, 0xbe, 0xd7, 0xa8, 0x02, 0xbe, 0xab, 0x6d, 0x27, 0xbe,
  0x56, 0x5a, 0x17, 0xbe, 0x79, 0x7b, 0x82, 0xbd, 0x5c, 0xb0, 0x43, 0xbe,
  0xea, 0x57, 0x89, 0xbc, 0x26, 0x49, 0x01, 0x3e, 0x68, 0xa6, 0xc1, 0xbe,
  0xec, 0xc9, 0x09, 0xbe, 0x5d, 0x6e, 0x7b, 0xbe, 0xe3, 0x8d, 0x8f, 0xbe,
  0xf5, 0xf5, 0x80, 0xbd, 0x35, 0x62, 0xe7, 0xbd, 0x14, 0xf9, 0xdc, 0x3c,
  0xa0, 0x47, 0x97, 0x3e, 0xf7, 0xe0, 0x43, 0x3e, 0xce, 0xd8, 0x75, 0xbd,
  0x91, 0x65, 0x0c, 0xbf, 0x92, 0x0e, 0xa7, 0x3d, 0x29, 0xe4, 0xc4, 0xbd,
  0xe5, 0xdb, 0x5a, 0x3e, 0x0d, 0x0d, 0x22, 0xbc, 0x89, 0x19, 0xa7, 0xbd,
  0x64, 0x96, 0xb2, 0x3e, 0xfb, 0x40, 0x12, 0x3e, 0x31, 0x71, 0x07, 0xbe,
  0x23, 0x87, 0x37, 0x3e, 0xdd, 0xe3, 0x83, 0x3e, 0x8d, 0x27, 0x1c, 0xbe,
  0xfa, 0x94, 0x06, 0x3e, 0x54, 0x47, 0x0e, 0x3e, 0xe6, 0xca, 0xee, 0xbe,
  0x35, 0x2f, 0x02, 0xbe, 0x7c, 0xb2, 0x63, 0xbf, 0xe8, 0xf2, 0x11, 0x3e,
  0xe8, 0xcf, 0xbc, 0xbe, 0x98, 0xf0, 0x3a, 0xbd, 0x5e, 0x33, 0xb4, 0x3a,
  0x88, 0x37, 0xc7, 0xbe, 0x3d, 0xf5, 0x4e, 0xbd, 0x4b, 0x28, 0x3f, 0x3e,
  0x4d, 0x3f, 0x3d, 0xbf, 0xbc, 0x13, 0x49, 0x3e, 0xde, 0xba, 0x28, 0xbf,
  0x46, 0xc5, 0xad, 0xbe, 0xfe, 0x92, 0xe1, 0x3c, 0x90, 0x40, 0x24, 0xbe,
  0x54, 0xdb, 0x02, 0x3e, 0x24, 0x8c, 0x72, 0xbc, 0x3a, 0x69, 0x0b, 0x3e,
  0x11, 0xc7, 0x27, 0x3e, 0xc4, 0x7a, 0xd7, 0xbd, 0x02, 0x3b, 0xd0, 0xbe,
  0xd9, 0xda, 0xee, 0xbc, 0xb3, 0x29, 0xe4, 0x3d, 0x83, 0x9c, 0x8e, 0x3e,
  0x60, 0x58, 0x57, 0xbe, 0x36, 0xfc, 0x78, 0x3e, 0x72, 0x33, 0x1b, 0xbd,
  0x12, 0x5e, 0xf8, 0x3d, 0xfe, 0xdb, 0x92, 0x3c, 0xe9, 0x1f, 0x73, 0xbd,
  0x33, 0x86, 0x4b, 0xbe, 0xac, 0x46, 0x18, 0xbe, 0xb8, 0x83, 0x14, 0xbe,
  0x0b, 0x48, 0xa1, 0xbd, 0x23, 0xe6, 0xa1, 0xbe, 0x81, 0x3b, 0xcb, 0x3d,
  0x39, 0xf2, 0x02, 0xbf, 0x7f, 0xb7, 0x9d, 0x3b, 0xb7, 0xf1, 0x35, 0xbe,
  0xe8, 0xb0, 0x25, 0x3d, 0x5f, 0xc1, 0xb1, 0x3b, 0x5f, 0x17, 0x3d, 0xbd,
  0xfb, 0xc8, 0x23, 0xbe, 0xb4, 0x6d, 0x90, 0x3d, 0x43, 0xa8, 0x86, 0xbe,
  0x03, 0x9e, 0x80, 0x3d, 0x60, 0x77, 0xe4, 0x3e, 0xd7, 0x65, 0x7b, 0xbe,
  0x48, 0xd1, 0xa0, 0xbe, 0x5a, 0x3f, 0x20, 0xbd, 0x18, 0xe1, 0xfa, 0x3d,
  0xec, 0xd3, 0xe5, 0x3c, 0x09, 0x93, 0xb4, 0xbd, 0xc7, 0x5c, 0xab, 0xbe,
  0xa4, 0xb6, 0x31, 0x3d, 0x4d, 0x38, 0x2d, 0xbf, 0xcf, 0xb2, 0xb5, 0xbd,
  0x7c, 0xba, 0xcb, 0xbd, 0x73, 0x83, 0x19, 0xbf, 0x8a, 0xa3, 0x17, 0xbe,
  0xc6, 0x9e, 0xfb, 0x3d, 0x35, 0x89, 0xde, 0xbe, 0x85, 0x21, 0x5a, 0x3e,
  0x76, 0xa8, 0xd9, 0xbe, 0xb3, 0x4a, 0x2f, 0xbe, 0xb6, 0x10, 0x55, 0xbe,
  0xc8, 0x03, 0x2e, 0xbf, 0x20, 0x16, 0xf9, 0xbd, 0xc2, 0x7b, 0xaf, 0xbd,
  0xe8, 0xf6, 0xc3, 0xbe, 0xc9, 0x43, 0xac, 0xbd, 0xbb, 0xf8, 0x9a, 0xbe,
  0xf9, 0x32, 0x06, 0xbd, 0xfd, 0x37, 0x98, 0xbe, 0xe2, 0xd0, 0x25, 0x3e,
  0xcb, 0xca, 0x14, 0xbf, 0x41, 0x3b, 0x14, 0x3f, 0xba, 0x31, 0x3b, 0xbd,
  0xba, 0x00, 0x73, 0xbd, 0x6b, 0x4d, 0xa3, 0x3e, 0x16, 0xc2, 0x0a, 0x3d,
  0x50, 0xd2, 0xc3, 0x3d, 0xd1, 0x3d, 0x8a, 0x3d, 0x82, 0x8e, 0x2f, 0xbe,
  0xf7, 0x74, 0x13, 0xbe, 0x43, 0xf7, 0xae, 0xbe, 0xae, 0x6b, 0xd8, 0xbd,
  0xbc, 0x98, 0xc3, 0x3d, 0x02, 0xfb, 0x0d, 0xbe, 0x52, 0x6f, 0xb6, 0x3d,
  0xd9, 0xab, 0x07, 0x3e, 0x78, 0xed, 0x53, 0x3e, 0x01, 0xed, 0xba, 0xbd,
  0x28, 0xb9, 0xd7, 0xbc, 0x7b, 0x33, 0x2f, 0x3e, 0x24, 0x40, 0x49, 0x3e,
  0xe8, 0x5f, 0x36, 0xbe, 0x52, 0x4a, 0x04, 0x3f, 0x44, 0x9e, 0xda, 0x3c,
  0x5e, 0x9c, 0xb0, 0xbd, 0x73, 0xa3, 0x11, 0xbe, 0x66, 0xdd, 0xbc, 0xbc,
  0x09, 0x81, 0xce, 0x3d, 0xd9, 0xa2, 0x4f, 0xbe, 0x94, 0x63, 0x91, 0xbe,
  0x45, 0xbd, 0x05, 0xbe, 0xba, 0x03, 0x06, 0xbf, 0x19, 0x69, 0xaf, 0xbd,
  0x0a, 0xec, 0x06, 0xbe, 0xd8, 0xdf, 0x13, 0xbd, 0xc9, 0x9d, 0x9b, 0x3e,
  0x8f, 0xcb, 0x04, 0xbf, 0x52, 0x30, 0x69, 0xbe, 0x28, 0x32, 0xe7, 0xbd,
  0x9d, 0xc5, 0xb7, 0xbe, 0x4b, 0xb4, 0x51, 0xbd, 0x9d, 0x88, 0xab, 0x3b,
  0x7c, 0xc1, 0xb0, 0x3a, 0x55, 0x8e, 0xd5, 0xbd, 0x02, 0x1e, 0x93, 0xbd,
  0x7b, 0x1a, 0x76, 0x3e, 0x1f, 0xf9, 0x25, 0xbe, 0x43, 0xb9, 0x26, 0xbc,
  0xa1, 0xc0, 0xbb, 0x3c, 0x55, 0x42, 0xd3, 0xbe, 0xa9, 0x24, 0x1b, 0xbe,
  0xaf, 0x3a, 0xac, 0x3e, 0xe1, 0x19, 0x55, 0xbd, 0xbf, 0x13, 0x06, 0xbd,
  0x65, 0x3c, 0x22, 0xbe, 0xe5, 0xa0, 0x46, 0xbe, 0x28, 0x32, 0x1c, 0xbd,
  0x1e, 0xbc, 0xdf, 0xbc, 0xc5, 0x0e, 0x35, 0x3c, 0x30, 0x59, 0x0d, 0x3c,
  0x17, 0x5b, 0x1c, 0xbe, 0xa6, 0xd2, 0xdb, 0xbc, 0x36, 0x6a, 0x26, 0xbe,
  0x20, 0x1e, 0x53, 0xbe, 0xc6, 0x70, 0xdf, 0xbd, 0x8f, 0x36, 0xb1, 0x3e,
  0x83, 0xbe, 0x11, 0x3e, 0x1e, 0x40, 0x3b, 0xbd, 0x1b, 0x43, 0x39, 0xbe,
  0xe7, 0x76, 0x9e, 0xbe, 0x96, 0x01, 0x4d, 0xbe, 0xb1, 0x09, 0x60, 0xbd,
  0x34, 0x8f, 0x6f, 0x3e, 0xd5, 0x55, 0x05, 0xbf, 0xa9, 0x6f, 0xe3, 0xbd,
  0x52, 0x82, 0xe9, 0xbd, 0x47, 0x8f, 0x33, 0xbe, 0xc1, 0xb2, 0xac, 0xbe,
  0x4c, 0x30, 0xae, 0x3c, 0x14, 0xbf, 0xfc, 0xbd, 0xdc, 0x5e, 0x2c, 0x3e,
  0xc4, 0x7a, 0xc3, 0xbe, 0x3c, 0xd7, 0xd1, 0xbd, 0x19, 0x29, 0x6b, 0xbe,
  0x12, 0x99, 0x00, 0xbf, 0x53, 0xbb, 0xde, 0xbd, 0x1c, 0x84, 0xa8, 0xbd,
  0xeb, 0x68, 0x28, 0xbe, 0x68, 0x0b, 0x9f, 0xbf, 0x95, 0x50, 0x07, 0x3e,
  0xfc, 0x5a, 0xbf, 0xbc, 0xfa, 0xf7, 0xaf, 0xbe, 0xe4, 0x4e, 0xe9, 0xbd,
  0xe7, 0x16, 0x96, 0xbe, 0xd7, 0x0b, 0x2b, 0xbe, 0x3d, 0x58, 0x04, 0xbe,
  0xf6, 0x9a, 0x5b, 0xbf, 0x72, 0x29, 0xf2, 0x3d, 0x7c, 0x26, 0x7f, 0x3d,
  0xd6, 0xdd, 0x4f, 0xbf, 0x84, 0x1d, 0xa9, 0xbe, 0xd6, 0xa1, 0x8e, 0xbe,
  0xa5, 0xc8, 0xa8, 0xbc, 0xfa, 0x12, 0xf1, 0xbe, 0x6c, 0x20, 0x63, 0xbf,
  0xf0, 0x93, 0x88, 0xbd, 0x9a, 0x7c, 0x6e, 0x3e, 0xc7, 0x8b, 0x88, 0xbe,
  0x73, 0xa4, 0xef, 0xbd, 0xc9, 0xc5, 0xeb, 0xbd, 0x7a, 0x35, 0xc7, 0xbe,
  0xb7, 0xa4, 0x8b, 0x3e, 0xd1, 0x72, 0x61, 0xbf, 0x26, 0x0e, 0xa8, 0x3d,
  0x9e, 0x92, 0x66, 0xbc, 0x89, 0xfb, 0x24, 0x3e, 0xb0, 0xc6, 0x99, 0xbd,
  0xd9, 0x3d, 0x5a, 0xbe, 0x32, 0x6a, 0xc9, 0x3d, 0xf5, 0x70, 0xf9, 0xbd,
  0x25, 0xb8, 0xbb, 0x3d, 0xc0, 0x58, 0xea, 0xbd, 0x23, 0xc8, 0x02, 0x3c,
  0xb2, 0xc3, 0x90, 0xbc, 0xdb, 0xa2, 0x5e, 0x3c, 0x85, 0x0e, 0xa8, 0xbd,
  0x8c, 0x66, 0xea, 0x3d, 0xa5, 0xbb, 0xe4, 0xbd, 0xa2, 0x9d, 0xb3, 0xbd,
  0xf7, 0x21, 0x92, 0x3e, 0x22, 0xa2, 0xba, 0xbc, 0xb4, 0x3b, 0x32, 0x3f,
  0xe9, 0xab, 0x98, 0xbe, 0xdd, 0x71, 0x0e, 0xbe, 0x22, 0x8e, 0x06, 0xbe,
  0xf4, 0x41, 0xbc, 0xbe, 0xb8, 0xd3, 0xb3, 0xbd, 0xc4, 0xed, 0x83, 0xbd,
  0x82, 0xaa, 0x94, 0xbc, 0xdc, 0x44, 0x07, 0x3e, 0x36, 0x88, 0xdb, 0xbe,
  0x67, 0x2f, 0x09, 0xbe, 0x08, 0x61, 0x36, 0xbe, 0xc6, 0xd8, 0xd0, 0xbe,
  0xd8, 0xf9, 0x8b, 0xbd, 0xd9, 0xb4, 0x56, 0x3c, 0x07, 0xd4, 0x83, 0xbc,
  0xa7, 0x56, 0xda, 0x3b, 0xee, 0x27, 0xdf, 0x3c, 0x4a, 0xaa, 0x64, 0x3e,
  0xbc, 0xe1, 0xcc, 0xbc, 0x06, 0x97, 0x21, 0x3f, 0x29, 0x07, 0x7a, 0x3c,
  0xfd, 0xf7, 0xfb, 0xbd, 0x08, 0x4a, 0x7c, 0x3c, 0x02, 0x02, 0x26, 0x3a,
  0xc4, 0xdc, 0xf1, 0x3d, 0xd5, 0xd3, 0xf7, 0xbd, 0x07, 0xae, 0x06, 0xbd,
  0xf7, 0x39, 0x93, 0xbd, 0x33, 0xf8, 0x52, 0xbd, 0x31, 0x1e, 0x16, 0xbd,
  0xe6, 0x30, 0x10, 0x3a, 0x74, 0x7f, 0xd3, 0x3d, 0x1b, 0x8d, 0x16, 0xbe,
  0x5d, 0x49, 0x43, 0xbe, 0x0d, 0x00, 0x9b, 0x3c, 0x75, 0x3a, 0xa4, 0xbe,
  0x6f, 0x06, 0xe0, 0xbc, 0x66, 0x84, 0x44, 0xbb, 0x9c, 0xb5, 0x71, 0xbc,
  0xe3, 0xd3, 0x35, 0x3e, 0x26, 0xb5, 0x5e, 0xbe, 0xab, 0x2d, 0x61, 0xbe,
  0xfb, 0x4e, 0x91, 0xbb, 0xbd, 0x5b, 0xaf, 0xbe, 0xf1, 0x36, 0x3a, 0xbd,
  0x13, 0x24, 0xa4, 0x3a, 0xe2, 0xdd, 0xff, 0xff, 0x10, 0x00, 0x00, 0x00,
  0x0a, 0x00, 0x00, 0x00, 0x1c, 0x00, 0x00, 0x00, 0x38, 0x00, 0x00, 0x00,
  0x04, 0x00, 0x00, 0x00, 0x10, 0x00, 0x00, 0x00, 0x04, 0x00, 0x00, 0x00,
  0x01, 0x00, 0x00, 0x00, 0x08, 0x00, 0x00, 0x00, 0x1a, 0x00, 0x00, 0x00,
  0x73, 0x65, 0x71, 0x75, 0x65, 0x6e, 0x74, 0x69, 0x61, 0x6c, 0x2f, 0x63,
  0x6f, 0x6e, 0x76, 0x32, 0x64, 0x5f, 0x31, 0x2f, 0x43, 0x6f, 0x6e, 0x76,
  0x32, 0x44, 0x00, 0x00, 0x58, 0xdd, 0xff, 0xff, 0x62, 0xde, 0xff, 0xff,
  0x04, 0x00, 0x00, 0x00, 0x80, 0x01, 0x00, 0x00, 0x35, 0xcf, 0xce, 0x3b,
  0xf1, 0xee, 0x88, 0x3d, 0x36, 0xba, 0x26, 0x3e, 0xe6, 0xc5, 0x57, 0xbd,
  0x6d, 0x90, 0x24, 0x3c, 0x8d, 0x4b, 0xb6, 0xbd, 0x89, 0x3e, 0x8e, 0xbc,
  0x90, 0x5d, 0x6e, 0xbc, 0x40, 0x51, 0xf0, 0x3d, 0x62, 0xd0, 0xd5, 0x3d,
  0x34, 0x3f, 0x4a, 0xbd, 0x48, 0x46, 0x4b, 0xbd, 0x0c, 0x65, 0x42, 0x3e,
  0x29, 0x4a, 0xd7, 0xbe, 0x58, 0x54, 0x3a, 0x3a, 0xb9, 0x7f, 0x3b, 0xbd,
  0xa3, 0x3d, 0x71, 0xbe, 0xf8, 0x7a, 0xb6, 0x3d, 0xf4, 0x3a, 0x12, 0xbe,
  0xb3, 0x24, 0x2f, 0x3e, 0xe4, 0x3c, 0x0b, 0xbd, 0xe4, 0x93, 0x6f, 0xbd,
  0x9e, 0x4a, 0xd2, 0x3e, 0xa1, 0x20, 0xd0, 0xbd, 0x39, 0xfb, 0x65, 0x3e,
  0xd2, 0x20, 0x73, 0x3e, 0x50, 0x87, 0xa3, 0x3e, 0x5c, 0x00, 0xf1, 0x3c,
  0xfe, 0x2c, 0x6b, 0xbd, 0x58, 0x54, 0x16, 0xbd, 0x61, 0x85, 0x38, 0xbe,
  0xe6, 0x68, 0x3f, 0xbe, 0xb8, 0xb1, 0x92, 0xbe, 0x74, 0xf7, 0x1a, 0xbc,
  0x7a, 0x65, 0xe3, 0xbd, 0x19, 0x1f, 0x7a, 0xbd, 0x0e, 0xb6, 0x29, 0x3f,
  0xe4, 0x8e, 0x8f, 0xba, 0x12, 0xfe, 0xe8, 0xbc, 0xde, 0x1e, 0xcd, 0x3e,
  0x89, 0x32, 0x14, 0x3c, 0xc8, 0x23, 0x1c, 0x3d, 0x73, 0x99, 0x00, 0x3d,
  0x84, 0xcb, 0xd1, 0xbc, 0x34, 0x0c, 0x5e, 0xbc, 0x83, 0x29, 0x2c, 0xbf,
  0x11, 0x6d, 0x8c, 0xbd, 0x4f, 0x2c, 0xaf, 0x3b, 0x2e, 0x59, 0x03, 0x3d,
  0xab, 0xd9, 0x1a, 0xbe, 0x10, 0x00, 0xc0, 0x3e, 0x5a, 0x9b, 0x9c, 0xbd,
  0x01, 0x1e, 0x15, 0xbe, 0x1a, 0x2f, 0xde, 0xbe, 0x0d, 0x8c, 0x0f, 0xbe,
  0x52, 0x5e, 0x94, 0x3e, 0x23, 0xb1, 0xbf, 0xbd, 0x59, 0x02, 0xbe, 0x3d,
  0x7f, 0x15, 0x4c, 0xbe, 0x10, 0xd0, 0x62, 0x3b, 0x75, 0x78, 0xa4, 0x3d,
  0xbf, 0xb3, 0x23, 0xbc, 0x6b, 0xfc, 0x14, 0x3a, 0x8d, 0x76, 0x20, 0x3d,
  0xc7, 0x93, 0x9d, 0x3e, 0x15, 0x13, 0xc3, 0x3e, 0x55, 0x61, 0x5a, 0xbc,
  0x52, 0xa1, 0x13, 0xbd, 0x59, 0x76, 0x7f, 0xbe, 0x59, 0x41, 0xc8, 0xbd,
  0x1c, 0x29, 0xb7, 0xbe, 0x1b, 0x79, 0x45, 0xbe, 0x40, 0xc9, 0x27, 0xbd,
  0x84, 0xef, 0xc0, 0xbd, 0x04, 0xa5, 0x52, 0xbe, 0xc5, 0x79, 0xb1, 0xbc,
  0x52, 0x25, 0xfa, 0x37, 0xc4, 0x46, 0xcd, 0xbd, 0x4b, 0xda, 0x88, 0xbc,
  0xcb, 0xd3, 0x6a, 0x3d, 0x91, 0x5c, 0x81, 0xbd, 0x15, 0x99, 0xc0, 0xbc,
  0x47, 0xe2, 0x18, 0xbd, 0x91, 0xf6, 0xf0, 0xbd, 0xaf, 0x36, 0x96, 0x3e,
  0x05, 0x38, 0x4e, 0xbe, 0x1a, 0xa6, 0x50, 0xbe, 0x19, 0x5d, 0x01, 0xbf,
  0xc1, 0x0a, 0x81, 0xbe, 0x5f, 0xf3, 0x13, 0xbe, 0xc4, 0xab, 0x00, 0x3f,
  0xb9, 0x96, 0x89, 0x3e, 0x39, 0x8e, 0xdc, 0x3d, 0xbc, 0xbe, 0x11, 0x3e,
  0x2e, 0x5f, 0x1f, 0x3e, 0xaa, 0x7c, 0x15, 0x3e, 0xba, 0xdf, 0xff, 0xff,
  0x10, 0x00, 0x00, 0x00, 0x09, 0x00, 0x00, 0x00, 0x1c, 0x00, 0x00, 0x00,
  0x38, 0x00, 0x00, 0x00, 0x04, 0x00, 0x00, 0x00, 0x08, 0x00, 0x00, 0x00,
  0x04, 0x00, 0x00, 0x00, 0x03, 0x00, 0x00, 0x00, 0x01, 0x00, 0x00, 0x00,
  0x18, 0x00, 0x00, 0x00, 0x73, 0x65, 0x71, 0x75, 0x65, 0x6e, 0x74, 0x69,
  0x61, 0x6c, 0x2f, 0x63, 0x6f, 0x6e, 0x76, 0x32, 0x64, 0x2f, 0x43, 0x6f,
  0x6e, 0x76, 0x32, 0x44, 0x00, 0x00, 0x00, 0x00, 0x30, 0xdf, 0xff, 0xff,
  0x3a, 0xe0, 0xff, 0xff, 0x04, 0x00, 0x00, 0x00, 0x00, 0x01, 0x00, 0x00,
  0x7f, 0xe1, 0x27, 0xbe, 0x17, 0x53, 0xa6, 0x3e, 0xfe, 0x4a, 0xfe, 0x3c,
  0x5d, 0x34, 0xab, 0x3d, 0xb7, 0x05, 0x67, 0xbe, 0x5e, 0x3f, 0x84, 0xbd,
  0xfa, 0x36, 0x64, 0x3e, 0x61, 0x29, 0xbd, 0x3e, 0x9a, 0xfc, 0x1c, 0x3e,
  0xdf, 0xed, 0x45, 0x3e, 0xfe, 0xd7, 0x1e, 0xbe, 0xfd, 0x90, 0xdf, 0x3e,
  0x6e, 0x2c, 0x1a, 0x3f, 0xa9, 0x75, 0xd2, 0x3d, 0x99, 0x26, 0xd7, 0xbe,
  0x5a, 0x2f, 0xc8, 0xbd, 0x6b, 0x99, 0x18, 0xbe, 0x39, 0xf6, 0x96, 0x3e,
  0xce, 0xc2, 0x74, 0x3d, 0xa9, 0xf2, 0xb5, 0x3d, 0x41, 0x21, 0x51, 0xbe,
  0x10, 0x7f, 0x71, 0xbf, 0x2a, 0xf9, 0x74, 0x3e, 0x15, 0x0e, 0xa9, 0x3e,
  0x3c, 0xca, 0x2f, 0x3e, 0x79, 0xa4, 0x5d, 0x3e, 0x67, 0x2b, 0xef, 0xbd,
  0x85, 0x88, 0xc0, 0xbf, 0x1d, 0xc8, 0x05, 0xbf, 0xb4, 0xae, 0xfa, 0x3d,
  0xd8, 0x16, 0x3c, 0x3e, 0x97, 0x06, 0x08, 0xbe, 0x21, 0x90, 0xb7, 0xbd,
  0xa9, 0x4e, 0x84, 0x3e, 0x24, 0xac, 0x73, 0xbd, 0xda, 0x1b, 0x39, 0xbe,
  0xc6, 0x75, 0xd1, 0xbd, 0xda, 0x8c, 0x08, 0xbf, 0x83, 0xc8, 0x0f, 0x3e,
  0x88, 0xb7, 0x35, 0x3e, 0xc7, 0xd7, 0x11, 0xbd, 0x8a, 0x45, 0x91, 0xbc,
  0x24, 0x9f, 0x30, 0xbe, 0x11, 0xa6, 0x35, 0xbf, 0xb0, 0xff, 0x49, 0xbd,
  0x0e, 0x65, 0x85, 0x3d, 0x4a, 0x76, 0x3f, 0x3e, 0x63, 0x3f, 0xc6, 0xbd,
  0x90, 0x39, 0x2c, 0xbe, 0xd1, 0x70, 0x8a, 0x3e, 0xbf, 0x5d, 0x82, 0xbc,
  0x87, 0x38, 0x01, 0x3e, 0xf2, 0x7c, 0x56, 0xbe, 0x38, 0xae, 0x3f, 0xbf,
  0x7c, 0x59, 0x8a, 0x3e, 0xa5, 0x60, 0xb4, 0x3e, 0x34, 0xa9, 0x85, 0x3d,
  0xca, 0x54, 0x1b, 0x3e, 0x14, 0x68, 0x3e, 0xbe, 0xe0, 0x31, 0x1d, 0xbe,
  0xfe, 0x78, 0x32, 0x3e, 0xb1, 0x00, 0x26, 0xbd, 0x2d, 0x8d, 0x87, 0x3e,
  0x75, 0x78, 0x2b, 0xbe, 0x12, 0xe1, 0xff, 0xff, 0x10, 0x00, 0x00, 0x00,
  0x08, 0x00, 0x00, 0x00, 0x14, 0x00, 0x00, 0x00, 0x30, 0x00, 0x00, 0x00,
  0x02, 0x00, 0x00, 0x00, 0x04, 0x00, 0x00, 0x00, 0x10, 0x00, 0x00, 0x00,
  0x19, 0x00, 0x00, 0x00, 0x73, 0x65, 0x71, 0x75, 0x65, 0x6e, 0x74, 0x69,
  0x61, 0x6c, 0x2f, 0x64, 0x65, 0x6e, 0x73, 0x65, 0x5f, 0x31, 0x2f, 0x4d,
  0x61, 0x74, 0x4d, 0x75, 0x6c, 0x00, 0x00, 0x00, 0x80, 0xe0, 0xff, 0xff,
  0x8a, 0xe1, 0xff, 0xff, 0x04, 0x00, 0x00, 0x00, 0x00, 0x1c, 0x00, 0x00,
  0xfb, 0x5a, 0x43, 0x3e, 0xc3, 0x57, 0x47, 0xbd, 0x44, 0x8f, 0x77, 0xbe,
  0x95, 0xaf, 0x82, 0xbe, 0x48, 0x20, 0x64, 0x3c, 0xfa, 0x91, 0x0c, 0xbe,
  0xfe, 0x6c, 0xf6, 0xbe, 0xae, 0x42, 0xc8, 0x3c, 0xe4, 0xc8, 0x33, 0x3e,
  0x22, 0x1d, 0x30, 0xbe, 0x97, 0x29, 0x42, 0xbd, 0x2a, 0xe5, 0x3c, 0x3d,
  0xf4, 0x9d, 0x8e, 0x3d, 0x74, 0x71, 0x10, 0x3e, 0xa2, 0x10, 0xab, 0xbd,
  0x38, 0x96, 0x65, 0xbd, 0x55, 0x3d, 0xb2, 0x3e, 0x86, 0x16, 0xaa, 0xbd,
  0x79, 0x83, 0xe6, 0xbd, 0x21, 0x40, 0x16, 0xbd, 0xd2, 0x92, 0x4e, 0x3e,
  0xc3, 0x48, 0x01, 0xbe, 0x80, 0xf4, 0xc2, 0xbe, 0x54, 0x65, 0xe3, 0x3d,
  0x78, 0x2a, 0x4c, 0x3d, 0x49, 0xd8, 0x10, 0x3e, 0x72, 0x2a, 0x10, 0xbe,
  0x17, 0x34, 0x3e, 0x3e, 0x15, 0x25, 0xff, 0x3c, 0x3e, 0x01, 0x41, 0xbe,
  0xcb, 0xa4, 0x81, 0x3d, 0xa1, 0x2d, 0x46, 0x3e, 0x1a, 0x0b, 0x82, 0x3e,
  0x6c, 0xb7, 0x9f, 0xbd, 0xe3, 0x6f, 0x23, 0xbd, 0x26, 0xf6, 0xa6, 0x3d,
  0xbf, 0xde, 0xec, 0xbd, 0xd6, 0x5f, 0x0f, 0xbe, 0xf9, 0x1d, 0x55, 0xbf,
  0x39, 0x7d, 0x31, 0x3e, 0x6a, 0xc8, 0x93, 0xbd, 0x46, 0xde, 0x86, 0xbc,
  0x4d, 0x1e, 0x5b, 0x3e, 0x29, 0x9c, 0xef, 0x3e, 0x31, 0x35, 0xe8, 0xbd,
  0xef, 0xe7, 0x37, 0xbe, 0xb2, 0x52, 0xa4, 0x3e, 0x63, 0x67, 0xec, 0x3e,
  0xcf, 0xfe, 0xa3, 0x3e, 0x9d, 0xb5, 0x46, 0xbe, 0x52, 0x7c, 0x12, 0xbe,
  0x94, 0x18, 0x7b, 0x3e, 0xaa, 0x26, 0xc1, 0xbe, 0xa8, 0x95, 0x08, 0xbd,
  0x82, 0x15, 0x2e, 0xbf, 0xd8, 0x82, 0x92, 0x3d, 0x0b, 0xa3, 0xca, 0x3d,
  0xd7, 0x0e, 0xd9, 0xbb, 0x1d, 0xa6, 0xaf, 0xbb, 0xa9, 0x76, 0xfa, 0x3d,
  0xbc, 0x11, 0x93, 0xbd, 0xb6, 0xc9, 0x1a, 0xbe, 0x0c, 0x4f, 0xde, 0x3e,
  0xdd, 0xc0, 0x13, 0x3e, 0x94, 0x46, 0xef, 0x3e, 0xc7, 0x83, 0x17, 0xbe,
  0xa5, 0xbc, 0x8e, 0xbe, 0x09, 0xd7, 0x6a, 0xbd, 0x6c, 0x7c, 0xb8, 0xbd,
  0xaf, 0xca, 0x9c, 0xbc, 0x89, 0xf3, 0x01, 0xbf, 0x81, 0x6d, 0x4c, 0x3d,
  0x54, 0x15, 0x0e, 0x3d, 0x9e, 0x73, 0x15, 0x3e, 0x60, 0xe3, 0x4a, 0xbe,
  0x93, 0x56, 0x89, 0x3e, 0x96, 0x48, 0x41, 0xbd, 0x3f, 0xaa, 0x6c, 0xbd,
  0xfc, 0x83, 0xe9, 0x3d, 0x83, 0x00, 0x27, 0x3e, 0x72, 0x93, 0xbc, 0x3e,
  0x12, 0x03, 0x23, 0xbe, 0x57, 0x47, 0x4d, 0xbe, 0xcc, 0xc0, 0x17, 0xbe,
  0x97, 0x3b, 0x2b, 0xbc, 0x81, 0x75, 0x1d, 0xbe, 0xcb, 0x75, 0x01, 0xbf,
  0x87, 0x81, 0x53, 0x3e, 0x67, 0x43, 0x1d, 0x3d, 0x90, 0xb5, 0xfc, 0x3d,
  0x16, 0x01, 0xa2, 0xbd, 0xd9, 0xb4, 0x81, 0x3e, 0x60, 0x88, 0x64, 0xbd,
  0x73, 0x90, 0x5b, 0xbd, 0x23, 0xbd, 0xa1, 0x3e, 0x74, 0x5c, 0x8f, 0x3e,
  0x0a, 0xd7, 0x7e, 0x3e, 0x1a, 0xa7, 0x09, 0x3e, 0x8e, 0x84, 0x82, 0xbd,
  0x21, 0xb5, 0xb5, 0xbd, 0xc2, 0x6d, 0x41, 0xbe, 0x32, 0x9c, 0xde, 0xbd,
  0x0a, 0x1a, 0xe7, 0xbe, 0x69, 0x07, 0x70, 0x3d, 0x3b, 0xaf, 0xe5, 0xbc,
  0xcf, 0xfa, 0x50, 0x3d, 0xdc, 0x18, 0x1c, 0xbc, 0x62, 0x8b, 0x1e, 0x3e,
  0x9b, 0xb0, 0x19, 0xbd, 0x20, 0xf1, 0xa4, 0xbd, 0x67, 0x66, 0x55, 0xbe,
  0xca, 0xcd, 0x2d, 0x3d, 0x8e, 0xc3, 0x81, 0xbe, 0x0f, 0xcd, 0xbf, 0xbe,
  0x46, 0x1d, 0x2e, 0xbd, 0x7a, 0xc6, 0x91, 0xbe, 0x74, 0x3a, 0x55, 0x3e,
  0x17, 0x98, 0xa6, 0xbe, 0xf1, 0x1a, 0xf3, 0x3b, 0xeb, 0x35, 0xf0, 0xbd,
  0x78, 0xc8, 0xe8, 0xbe, 0x9a, 0xcd, 0x81, 0x3e, 0x50, 0x5b, 0xdd, 0xbe,
  0xdd, 0x85, 0x00, 0xbb, 0xd4, 0x68, 0x76, 0xbe, 0x24, 0x47, 0xeb, 0xbc,
  0xd2, 0xa2, 0x95, 0x3e, 0xb3, 0xb4, 0x35, 0x3e, 0x9d, 0x4b, 0xc6, 0xbd,
  0x2c, 0x97, 0x3f, 0xbe, 0x63, 0x51, 0x3a, 0x3e, 0x15, 0x03, 0x5e, 0xbe,
  0xee, 0x3d, 0x91, 0xbb, 0x27, 0x62, 0xc0, 0xbc, 0x91, 0xed, 0x1b, 0xbd,
  0xbe, 0x1d, 0x76, 0x3e, 0x9a, 0xb6, 0x72, 0xbe, 0x47, 0xd0, 0xf5, 0xbc,
  0xfe, 0x5f, 0xc0, 0x3d, 0x34, 0x76, 0x97, 0x3b, 0x79, 0xe6, 0xfe, 0xbd,
  0x7e, 0xed, 0x12, 0x3c, 0x81, 0x5c, 0x2f, 0x3e, 0x20, 0xe5, 0x1d, 0x3e,
  0x20, 0x5c, 0x37, 0x3d, 0x24, 0xee, 0x37, 0xbe, 0x24, 0xc3, 0x03, 0x3e,
  0xd0, 0x88, 0x23, 0x3e, 0xea, 0xd2, 0x6d, 0xbe, 0x42, 0xe5, 0x54, 0xbe,
  0xdf, 0x02, 0x25, 0xbd, 0x27, 0x44, 0xb3, 0x3e, 0x1f, 0x35, 0xbc, 0xbd,
  0x75, 0x60, 0xd1, 0x3d, 0x26, 0x2d, 0x0c, 0x3d, 0x22, 0x72, 0xb4, 0x3c,
  0x7b, 0xd6, 0xc5, 0xbd, 0xba, 0x5b, 0x1c, 0x3b, 0x5f, 0x39, 0x63, 0x3e,
  0x94, 0x00, 0x94, 0x3d, 0xba, 0xd4, 0x8e, 0x3d, 0xcc, 0x87, 0xcc, 0xbd,
  0xf2, 0x75, 0x8c, 0x3d, 0x04, 0x42, 0xba, 0x3d, 0x75, 0x03, 0x86, 0x3d,
  0x7e, 0x63, 0x59, 0x3e, 0x36, 0xba, 0x1d, 0xbc, 0x3f, 0xc9, 0x9a, 0x3e,
  0x2b, 0xbf, 0x15, 0xbf, 0x72, 0xa1, 0xe9, 0x3d, 0x2b, 0x0c, 0x1d, 0xbe,
  0xb1, 0xee, 0x02, 0x3d, 0x5a, 0x93, 0xc2, 0x3d, 0x56, 0x97, 0xb9, 0xbd,
  0x75, 0xb7, 0x05, 0x3e, 0x87, 0x1a, 0x4c, 0x3e, 0xc2, 0x95, 0xb2, 0xbd,
  0x7a, 0xb4, 0x85, 0xbe, 0xf2, 0x5d, 0xec, 0x3d, 0x4a, 0x49, 0xdd, 0x3d,
  0x93, 0xc9, 0x26, 0x3e, 0xb1, 0xf9, 0x3b, 0x3e, 0x87, 0x14, 0xd8, 0xbc,
  0xe2, 0x7b, 0xd6, 0x3d, 0xa3, 0xc3, 0x8b, 0xbe, 0xa9, 0xe4, 0x8e, 0xbd,
  0x71, 0xff, 0x23, 0xbe, 0x28, 0x37, 0xaa, 0xbd, 0x0c, 0x9c, 0x12, 0x3d,
  0x77, 0x87, 0xb5, 0xbb, 0x90, 0x32, 0xa6, 0x3e, 0x09, 0x62, 0x82, 0x3e,
  0x0a, 0xa4, 0x27, 0xbe, 0x68, 0x58, 0x10, 0xbf, 0xbe, 0xa9, 0xe9, 0x3c,
  0x9f, 0x13, 0xc6, 0xbe, 0x38, 0xb9, 0xc4, 0x3e, 0x78, 0x4b, 0x40, 0xbe,
  0x4c, 0x5d, 0x95, 0x3c, 0xb7, 0xf8, 0x11, 0xbd, 0xad, 0x80, 0xe2, 0xbe,
  0x1d, 0xc5, 0xec, 0x3d, 0x98, 0x47, 0x08, 0xbf, 0x3e, 0xa5, 0xd3, 0x3c,
  0x5a, 0x2e, 0x93, 0x3b, 0x05, 0x33, 0x05, 0x3e, 0xd5, 0xdf, 0x87, 0x3e,
  0x6b, 0x4d, 0x1f, 0x3d, 0x6c, 0x36, 0x1d, 0xbe, 0xc1, 0x11, 0x9a, 0xbe,
  0xb7, 0x85, 0xcf, 0x3d, 0x41, 0xc4, 0x7d, 0xbe, 0xa6, 0xad, 0xea, 0xbb,
  0xd1, 0x88, 0x8d, 0xbe, 0xa7, 0x82, 0x08, 0x3d, 0x03, 0x88, 0x0f, 0xbd,
  0x25, 0x00, 0xce, 0xbe, 0xf0, 0xcf, 0xf2, 0xbd, 0x35, 0x35, 0x55, 0xbe,
  0x8a, 0xd9, 0xee, 0x3c, 0x3b, 0x78, 0x50, 0x3e, 0x6e, 0x18, 0x14, 0xbf,
  0xe8, 0xcd, 0x1d, 0xbd, 0x51, 0xdf, 0x06, 0x3e, 0xda, 0xea, 0xbe, 0xbe,
  0x9d, 0x87, 0xe8, 0xbd, 0x73, 0x2f, 0xa3, 0xbd, 0xcf, 0x63, 0x8a, 0xbd,
  0x83, 0x91, 0xbc, 0xbe, 0x37, 0x0e, 0x66, 0xbe, 0x99, 0x50, 0x80, 0xbe,
  0x41, 0x0b, 0x78, 0xbe, 0xf4, 0x8e, 0xb5, 0xbe, 0x4a, 0xb4, 0x0b, 0x3e,
  0x75, 0x2b, 0x58, 0xbd, 0x39, 0xcc, 0x22, 0xbf, 0xd8, 0x98, 0x08, 0xbf,
  0x2e, 0x58, 0x18, 0xbe, 0xba, 0x26, 0x0f, 0xbf, 0xfb, 0xab, 0x98, 0xbe,
  0x12, 0xce, 0xe9, 0x3d, 0xae, 0xae, 0x25, 0x3d, 0xce, 0xf7, 0x34, 0xbe,
  0x92, 0xe2, 0x3e, 0x3e, 0x82, 0x08, 0x25, 0xbe, 0x39, 0xa1, 0x6a, 0xbe,
  0x2d, 0x54, 0x24, 0xbe, 0xfc, 0xb8, 0xdc, 0xbc, 0x9e, 0xcd, 0xb7, 0xbe,
  0xe7, 0x85, 0xd5, 0xbd, 0x16, 0xae, 0x18, 0x3e, 0x7f, 0x53, 0x5e, 0xbe,
  0x28, 0xc2, 0x97, 0xbe, 0x1c, 0x67, 0x4b, 0xbd, 0xaf, 0x15, 0x34, 0x3e,
  0x02, 0x27, 0x10, 0x3d, 0xbc, 0xc7, 0xb0, 0xbd, 0xaa, 0xad, 0xcc, 0xbd,
  0x21, 0xbf, 0xa5, 0xbe, 0x62, 0x98, 0x33, 0xbe, 0xfa, 0x8a, 0x06, 0x3d,
  0x97, 0xce, 0x58, 0xbe, 0x39, 0x94, 0xd6, 0xbd, 0x62, 0x4c, 0x3e, 0xbe,
  0xe7, 0xac, 0x8f, 0xbe, 0x51, 0xbb, 0x6f, 0xbe, 0xd9, 0x41, 0x3b, 0x3e,
  0xc8, 0x0a, 0x5f, 0xbe, 0xfe, 0xba, 0x5b, 0xbe, 0xaf, 0x34, 0xeb, 0xbd,
  0x29, 0xd4, 0x79, 0xbe, 0xf3, 0x1b, 0x47, 0xbe, 0xb1, 0x36, 0x1e, 0xbd,
  0x31, 0xec, 0xce, 0xbd, 0x1e, 0xde, 0xba, 0xbe, 0x13, 0x1b, 0x29, 0x3e,
  0xad, 0x37, 0x07, 0xbe, 0x4f, 0x86, 0x9e, 0x3d, 0x68, 0xc1, 0x41, 0xbe,
  0x05, 0xe6, 0x77, 0xbe, 0xa0, 0xc6, 0x02, 0xbf, 0xfc, 0x4f, 0xb4, 0x3d,
  0x13, 0xa1, 0x82, 0xbe, 0xc4, 0x10, 0x60, 0xbe, 0xaf, 0x50, 0x15, 0xbe,
  0x91, 0x98, 0x07, 0xbe, 0x01, 0xc3, 0x3f, 0xbe, 0xb1, 0xb7, 0x7b, 0xbe,
  0x57, 0x0a, 0x2b, 0xbe, 0x25, 0x25, 0x27, 0x3e, 0x44, 0xad, 0xcc, 0xbd,
  0x14, 0x7d, 0x83, 0x3d, 0x54, 0xe8, 0x7c, 0x3e, 0x08, 0xda, 0xab, 0x3d,
  0x14, 0x93, 0x80, 0xbd, 0xf7, 0xe5, 0xba, 0x3c, 0xee, 0x2d, 0xd0, 0x3b,
  0x17, 0xd3, 0x89, 0x3e, 0x03, 0x60, 0x83, 0x3e, 0x70, 0x3c, 0x23, 0x3d,
  0x1b, 0x4b, 0x0c, 0xbd, 0xf1, 0x85, 0x82, 0xbd, 0x30, 0x19, 0x0a, 0x3d,
  0x1c, 0xd0, 0xe3, 0x3c, 0x91, 0x98, 0x37, 0x3e, 0x3f, 0x48, 0x33, 0x3e,
  0x01, 0x59, 0x9a, 0xbc, 0x36, 0xb8, 0x16, 0x3e, 0x6b, 0x35, 0x90, 0xbe,
  0x47, 0x55, 0xa0, 0xbe, 0x62, 0xe1, 0xe3, 0x3c, 0x26, 0x80, 0x39, 0x3e,
  0x84, 0xe2, 0x98, 0x3d, 0xc3, 0xb3, 0x10, 0x3e, 0x52, 0xc0, 0x7f, 0x3e,
  0xbc, 0x5f, 0x9d, 0x3c, 0xef, 0xc4, 0xef, 0xbd, 0x4e, 0x1f, 0x71, 0xbc,
  0x13, 0x06, 0xe5, 0xbb, 0x2a, 0xf3, 0x45, 0x3d, 0x0e, 0xca, 0xee, 0xbc,
  0x5b, 0x3e, 0x04, 0xbf, 0x75, 0xde, 0x14, 0xbe, 0xac, 0x25, 0xf6, 0x3d,
  0x18, 0xda, 0x2c, 0xbe, 0x32, 0x65, 0x91, 0xbc, 0xec, 0x83, 0x23, 0x3c,
  0x10, 0xf3, 0x00, 0xbf, 0x80, 0xfa, 0xf1, 0x3c, 0xaf, 0xa8, 0x49, 0xbe,
  0x1f, 0x60, 0x2c, 0x3e, 0x7e, 0xce, 0xa3, 0x3c, 0x30, 0xa2, 0xe4, 0xbd,
  0x48, 0x05, 0x82, 0xbd, 0xe5, 0x6b, 0xbf, 0x3d, 0xfb, 0x30, 0xe5, 0x3c,
  0xe2, 0x23, 0x52, 0xbd, 0x15, 0x09, 0x5c, 0x3d, 0x62, 0x30, 0xa9, 0xbd,
  0x4a, 0x70, 0xda, 0x3c, 0x48, 0x94, 0x69, 0xbe, 0x12, 0xf0, 0xde, 0x3b,
  0xf7, 0x06, 0xfa, 0x3b, 0x3a, 0x1a, 0x50, 0x3c, 0xc1, 0x86, 0xa4, 0xbe,
  0x11, 0x57, 0x7a, 0xbe, 0xff, 0x3a, 0x2a, 0xbd, 0xcd, 0xf6, 0x52, 0x3c,
  0x1f, 0x16, 0xc2, 0xbb, 0xd8, 0x7a, 0x02, 0x3e, 0xf9, 0x7c, 0xb2, 0xbe,
  0xb6, 0x6b, 0x82, 0xbe, 0x55, 0x0a, 0x83, 0xbe, 0x4d, 0xed, 0x92, 0x3e,
  0xbc, 0x5d, 0x2d, 0x3e, 0xd7, 0xc1, 0x05, 0x3e, 0x8e, 0x73, 0x93, 0x3c,
  0x28, 0xde, 0x15, 0xbd, 0x8b, 0x21, 0x49, 0x3d, 0xb4, 0xda, 0x8f, 0xbd,
  0xa9, 0x96, 0x50, 0xbe, 0x26, 0x4b, 0x92, 0x3d, 0x67, 0x3a, 0x5b, 0x3e,
  0x29, 0xa4, 0x5a, 0xbe, 0x8f, 0x03, 0x4b, 0x3e, 0xb1, 0x7b, 0xa4, 0x3e,
  0x2a, 0x5e, 0x01, 0xbf, 0x0d, 0xa5, 0x5f, 0xbd, 0x97, 0xa5, 0xbb, 0xbd,
  0x23, 0xe8, 0x25, 0x3e, 0x9a, 0x37, 0x5c, 0xbb, 0x0f, 0xde, 0xce, 0x3c,
  0x92, 0x7f, 0x85, 0x3d, 0x00, 0x0e, 0x15, 0xbe, 0x2d, 0x79, 0x89, 0x3d,
  0x4f, 0xc9, 0x1f, 0xbd, 0xba, 0x67, 0x1b, 0xbe, 0x54, 0xc2, 0x4e, 0x3e,
  0xc3, 0xe4, 0xac, 0x3e, 0x6b, 0xae, 0x14, 0xbd, 0xd8, 0x2c, 0x8a, 0x3c,
  0x76, 0x03, 0xbf, 0x3a, 0x81, 0xd3, 0x68, 0xbe, 0xd6, 0x4a, 0x96, 0xbd,
  0x13, 0xdc, 0x4f, 0xbc, 0xb5, 0x54, 0x2f, 0x3e, 0x1f, 0x09, 0x3a, 0x3d,
  0xfe, 0x60, 0x29, 0x3e, 0x4d, 0x4b, 0xc9, 0x3d, 0xce, 0xa4, 0x68, 0x3d,
  0xda, 0x53, 0xc2, 0x3c, 0x7b, 0x3f, 0x84, 0xbd, 0xd6, 0xcf, 0x2a, 0xbe,
  0xda, 0xe8, 0x22, 0x3e, 0x01, 0x0d, 0xb6, 0x3d, 0x25, 0x85, 0x0d, 0x3b,
  0xd7, 0xa9, 0xdd, 0x3d, 0x46, 0x34, 0x08, 0x3d, 0xda, 0x15, 0x09, 0xbe,
  0x6b, 0xfd, 0x2c, 0x3d, 0xf2, 0xe1, 0x70, 0xbe, 0x53, 0xc8, 0xe5, 0x3d,
  0x29, 0x6a, 0x22, 0xbe, 0x10, 0xa3, 0x60, 0x3e, 0x75, 0xd0, 0x8c, 0x3b,
  0x55, 0x86, 0x19, 0xbe, 0xcb, 0x7e, 0xbd, 0xbb, 0x78, 0x25, 0x1b, 0xbe,
  0xeb, 0xe3, 0xb4, 0xbe, 0xe4, 0x57, 0x28, 0x3e, 0x57, 0x26, 0x56, 0x3e,
  0x25, 0x6a, 0xf8, 0xbd, 0xde, 0x17, 0xfe, 0x3c, 0xb9, 0x00, 0x18, 0x3d,
  0x70, 0x9a, 0x46, 0xbe, 0x2a, 0xee, 0xab, 0xba, 0x52, 0x3a, 0x01, 0xbe,
  0x01, 0xe1, 0x34, 0x3e, 0x95, 0x87, 0xd3, 0xbe, 0xe5, 0x15, 0x20, 0x3e,
  0xb7, 0xc0, 0x52, 0xbf, 0xb7, 0x21, 0x0e, 0xbb, 0xf3, 0xd5, 0x16, 0x3c,
  0x80, 0x26, 0xdb, 0xbe, 0x8d, 0xfe, 0x52, 0xbe, 0x4f, 0x35, 0x84, 0xbc,
  0x6e, 0xb7, 0x23, 0x3e, 0xba, 0x97, 0x43, 0xbe, 0x46, 0x4e, 0x87, 0x3e,
  0x51, 0x0f, 0x76, 0x3d, 0xf8, 0x06, 0xca, 0xbe, 0x17, 0x6f, 0x4f, 0xbe,
  0x73, 0xc2, 0x6d, 0xbc, 0x61, 0x36, 0xdf, 0x3b, 0xdb, 0x84, 0x80, 0xbe,
  0x03, 0x41, 0xaa, 0x3b, 0x87, 0x04, 0xb9, 0x3c, 0xe9, 0xe5, 0xb0, 0x3d,
  0x0e, 0x6a, 0x53, 0xbd, 0xac, 0x66, 0x83, 0x3b, 0x08, 0x6d, 0xa4, 0x3d,
  0x47, 0x76, 0xe1, 0x3c, 0x4e, 0x91, 0xf2, 0xbd, 0xe9, 0x18, 0x30, 0xbd,
  0x66, 0xc9, 0x53, 0xbe, 0x1d, 0x8b, 0xd5, 0xbd, 0x2c, 0xa6, 0x20, 0x3d,
  0xaa, 0xb9, 0xea, 0xbd, 0x9c, 0xb8, 0x12, 0x3e, 0x99, 0x51, 0x18, 0xbc,
  0x71, 0xac, 0xc6, 0xbe, 0x65, 0xed, 0xb0, 0xbe, 0x5e, 0x4f, 0x7a, 0xbd,
  0xd3, 0xea, 0xb8, 0xbc, 0x4c, 0xd2, 0xe9, 0xbe, 0xeb, 0x4c, 0xab, 0x3b,
  0x30, 0xaf, 0x0f, 0x3e, 0x95, 0x82, 0x9c, 0xbd, 0xc0, 0x7e, 0x7c, 0xbd,
  0xcf, 0xd0, 0xa5, 0xbd, 0x60, 0x3a, 0xb1, 0x3d, 0xea, 0xf8, 0x97, 0x3e,
  0xbe, 0x10, 0xc4, 0xbd, 0x7d, 0x3d, 0xce, 0x3d, 0x75, 0x79, 0xa6, 0x3e,
  0x5f, 0x29, 0x29, 0xbe, 0x23, 0xf4, 0xea, 0xbd, 0x60, 0xff, 0x4f, 0xbe,
  0x18, 0xf6, 0xc4, 0x3d, 0xa8, 0x98, 0xf5, 0xbd, 0x43, 0x24, 0x55, 0xbf,
  0x99, 0xb5, 0x89, 0x3c, 0x43, 0x58, 0x0a, 0x3d, 0x06, 0x71, 0xa6, 0xbc,
  0xaf, 0xd5, 0xf2, 0x3d, 0x3b, 0x6b, 0x7b, 0x3e, 0xae, 0x7e, 0xef, 0x3c,
  0x27, 0x82, 0x24, 0xbc, 0x6f, 0xd5, 0x56, 0x3e, 0x0a, 0x38, 0x7a, 0x3e,
  0xe0, 0x51, 0x64, 0x3e, 0xb4, 0x54, 0xef, 0xbc, 0xb4, 0xf9, 0x15, 0xbe,
  0xb1, 0xd3, 0x73, 0x3e, 0x1d, 0xb7, 0xba, 0x3d, 0x29, 0x92, 0xfd, 0xbd,
  0x28, 0x46, 0x5b, 0xbf, 0xce, 0x04, 0x1b, 0x3e, 0x43, 0x9e, 0xca, 0xbd,
  0x7d, 0xde, 0xfc, 0x3d, 0xd0, 0x76, 0x66, 0x3d, 0xd3, 0xb5, 0xb5, 0x3e,
  0x64, 0x85, 0x5d, 0x3d, 0x63, 0xba, 0xda, 0xbb, 0x7d, 0x75, 0xb6, 0x3e,
  0x79, 0x00, 0xe6, 0x3e, 0xd7, 0x59, 0x2c, 0x3e, 0xbd, 0x67, 0x50, 0xbe,
  0x5d, 0xba, 0x8b, 0xbe, 0xcd, 0x9c, 0x0e, 0x3e, 0xd0, 0x82, 0xa2, 0xbe,
  0x6c, 0xf9, 0x1b, 0xbd, 0x62, 0x81, 0x3c, 0xbf, 0x9b, 0x60, 0xd8, 0x3c,
  0x39, 0x20, 0xf9, 0x3d, 0x0b, 0x11, 0x2a, 0x3e, 0xd6, 0x86, 0xc7, 0x3d,
  0x83, 0x4e, 0x24, 0x3e, 0x78, 0xff, 0x34, 0xba, 0x50, 0x02, 0x20, 0xbe,
  0x31, 0x65, 0xb3, 0x3e, 0xb1, 0xbd, 0x58, 0x3e, 0xb3, 0xfa, 0x9c, 0x3e,
  0xb6, 0x6e, 0x4e, 0xbe, 0x9c, 0x6d, 0x91, 0xbe, 0xbc, 0x7b, 0xe0, 0x3b,
  0xba, 0xb9, 0x4f, 0xbe, 0x6d, 0x9d, 0x32, 0xbe, 0xff, 0x47, 0x4d, 0xbf,
  0xe3, 0xdc, 0xca, 0x3d, 0x16, 0x49, 0x09, 0x3e, 0x5a, 0xda, 0xfb, 0x3c,
  0x4f, 0x4d, 0x75, 0xbe, 0x69, 0x10, 0xa0, 0x3e, 0xc4, 0xa5, 0x75, 0xbe,
  0x85, 0xc1, 0x4f, 0xbd, 0x98, 0x41, 0x87, 0x3d, 0xf1, 0x63, 0x37, 0x3e,
  0xdc, 0x03, 0x99, 0x3e, 0x92, 0x95, 0xb4, 0xbd, 0x70, 0x55, 0x01, 0xbe,
  0xd7, 0x20, 0x14, 0xbe, 0x33, 0x32, 0x11, 0xbe, 0x14, 0x6e, 0x53, 0xbe,
  0xd2, 0x91, 0x46, 0xbf, 0x16, 0x78, 0x67, 0x3e, 0x4e, 0x02, 0xea, 0x3d,
  0x7a, 0xd8, 0x0d, 0x3e, 0x7d, 0x65, 0x4e, 0xbe, 0x2c, 0x29, 0x91, 0x3e,
  0x9f, 0x9b, 0x7a, 0xbe, 0x04, 0xa2, 0xcc, 0xbe, 0xbc, 0xef, 0xa9, 0x3e,
  0xc5, 0x4f, 0x48, 0x3e, 0xb4, 0x89, 0xef, 0x3d, 0xda, 0x77, 0x1a, 0x3e,
  0xaa, 0x65, 0x31, 0xbd, 0x29, 0x9e, 0xb5, 0x3c, 0xca, 0x13, 0xa3, 0xba,
  0x3e, 0x24, 0x4a, 0xbd, 0x9a, 0x01, 0xc6, 0xbe, 0x1c, 0x8c, 0x9f, 0xbc,
  0xed, 0x0c, 0x25, 0xbd, 0x60, 0xe1, 0x6c, 0x3c, 0x75, 0x85, 0xde, 0x3d,
  0x63, 0xf1, 0xd6, 0x3d, 0x89, 0x94, 0x45, 0xbe, 0xe1, 0x7f, 0xea, 0xbd,
  0x56, 0xd8, 0xa9, 0xbc, 0xf4, 0x4a, 0xd3, 0x3c, 0x28, 0x1f, 0xce, 0xbc,
  0x87, 0x8e, 0x8b, 0xbe, 0x64, 0x6b, 0x53, 0xbd, 0x84, 0x1a, 0x57, 0xbe,
  0x12, 0xd5, 0x31, 0x3e, 0xbe, 0x88, 0x77, 0xbd, 0xbd, 0xa4, 0xd4, 0xbe,
  0x84, 0x12, 0xce, 0xbe, 0x3d, 0xaf, 0x87, 0xbc, 0x0e, 0xc0, 0x4b, 0x3e,
  0xa1, 0xcc, 0x22, 0xbe, 0xc6, 0x81, 0xed, 0xbd, 0x0f, 0x3e, 0xfe, 0xbd,
  0xc3, 0x3b, 0x1a, 0xbe, 0x0a, 0x26, 0x59, 0xbe, 0x1c, 0xc1, 0xa5, 0xbd,
  0xcd, 0x85, 0x12, 0x3e, 0xd3, 0x88, 0x66, 0xbe, 0xd2, 0x36, 0x52, 0xbd,
  0xbb, 0x49, 0x68, 0xbe, 0xfc, 0x93, 0x50, 0x3f, 0x17, 0xcb, 0x28, 0xbd,
  0xb0, 0x73, 0x5e, 0xbe, 0xe5, 0xb3, 0x2f, 0x3d, 0xe7, 0x06, 0x4a, 0xbe,
  0xcc, 0xba, 0x07, 0x3f, 0x72, 0x62, 0xb1, 0xbd, 0x4f, 0x62, 0x96, 0xbe,
  0x11, 0xde, 0x64, 0xbe, 0x35, 0xbc, 0xfc, 0xbd, 0x4d, 0x26, 0xde, 0x3c,
  0xfd, 0x53, 0xee, 0xbd, 0x07, 0x9a, 0x1c, 0xbd, 0xd5, 0x02, 0x82, 0xbe,
  0x76, 0x99, 0x33, 0xbd, 0x22, 0x33, 0xc3, 0xbd, 0xd0, 0x72, 0x42, 0x3f,
  0x8f, 0xb7, 0x31, 0x3d, 0xa1, 0x96, 0x34, 0xbe, 0x8a, 0x13, 0xf1, 0x3c,
  0x14, 0x54, 0x13, 0x3d, 0x2b, 0x35, 0xf0, 0x3e, 0x42, 0x30, 0x52, 0xbd,
  0x4e, 0x7e, 0x16, 0xbe, 0xd4, 0x09, 0x21, 0xbd, 0x19, 0xdf, 0x20, 0xbd,
  0x1e, 0xca, 0x2e, 0xbd, 0x48, 0x91, 0x8d, 0xbe, 0x48, 0x79, 0xc9, 0x3c,
  0x74, 0x4e, 0x00, 0xbe, 0x11, 0xd1, 0x1f, 0xbe, 0x00, 0x70, 0x0f, 0xbd,
  0xf3, 0x61, 0x85, 0x3f, 0x26, 0x60, 0xb4, 0xbb, 0x1f, 0xab, 0x30, 0xbe,
  0x10, 0xb3, 0x17, 0xbe, 0xca, 0x7a, 0xb7, 0xbd, 0x7e, 0x59, 0x36, 0x3f,
  0xf3, 0xf6, 0x5b, 0xbe, 0xb1, 0xb6, 0x4a, 0xbd, 0x1a, 0xcc, 0x42, 0xbd,
  0xab, 0x18, 0x88, 0xbc, 0xeb, 0xb2, 0x06, 0x3e, 0x6e, 0x59, 0x26, 0xbe,
  0x25, 0x71, 0xb4, 0xbd, 0xf0, 0xaa, 0xaa, 0xbd, 0xe0, 0x85, 0x0c, 0xbe,
  0xed, 0x71, 0x1d, 0xbe, 0xce, 0x39, 0x82, 0x3f, 0x7c, 0xec, 0x76, 0xbd,
  0x2f, 0x6c, 0x8f, 0xbe, 0x6d, 0xad, 0x3a, 0xbe, 0x4b, 0x8c, 0x78, 0xbe,
  0xee, 0x5a, 0x27, 0x3f, 0xd0, 0x1d, 0x29, 0x3e, 0x6f, 0x08, 0x10, 0xbe,
  0xf2, 0xdd, 0xbd, 0x3b, 0x1d, 0x96, 0x53, 0xbe, 0x0f, 0x24, 0xcf, 0xbc,
  0x11, 0x01, 0x1f, 0x3d, 0xa8, 0xad, 0x7b, 0xbc, 0xdf, 0xd8, 0x8d, 0xbd,
  0xfb, 0x7c, 0x58, 0xbe, 0xd7, 0xc2, 0xad, 0x3d, 0x1c, 0x9a, 0x7d, 0x3f,
  0x6e, 0xbf, 0x13, 0xbe, 0x55, 0xdc, 0x8d, 0xbe, 0xa7, 0xfe, 0x3e, 0xbd,
  0x45, 0x58, 0x1b, 0xbe, 0xf8, 0x4d, 0x44, 0x3f, 0x0e, 0x07, 0x77, 0xbe,
  0x04, 0x35, 0x9e, 0xbd, 0xfd, 0x35, 0x67, 0xbe, 0x1f, 0x5b, 0xac, 0x3d,
  0x42, 0x6b, 0x22, 0xb9, 0x25, 0x46, 0x9c, 0xbe, 0x38, 0xdc, 0x96, 0xbe,
  0x58, 0xcd, 0xac, 0xbe, 0x54, 0xf0, 0x83, 0xbe, 0x64, 0x02, 0xb5, 0xbe,
  0x8b, 0xeb, 0xc1, 0x3e, 0xc8, 0x15, 0x89, 0xbe, 0xca, 0x4c, 0xc6, 0xbe,
  0xd0, 0x86, 0xa3, 0xbe, 0x0d, 0x91, 0xf5, 0xbd, 0x12, 0x62, 0x06, 0xbe,
  0xd1, 0x0d, 0x30, 0x3e, 0x98, 0x10, 0xb8, 0xbe, 0x2e, 0xf8, 0x91, 0xbe,
  0x3b, 0xe8, 0x41, 0x3e, 0x24, 0xb2, 0xb5, 0xbe, 0xeb, 0xe1, 0xaa, 0xbd,
  0x90, 0x85, 0x85, 0xbe, 0xb9, 0x8e, 0x8a, 0xbd, 0xe8, 0x17, 0xef, 0xbc,
  0x20, 0xcf, 0xa9, 0x3c, 0xa6, 0x10, 0x8e, 0xbe, 0x81, 0x21, 0x0b, 0x3e,
  0x04, 0xa7, 0x61, 0xbc, 0xda, 0x0f, 0xa4, 0xbd, 0xcc, 0x9b, 0xf0, 0xbc,
  0x31, 0x54, 0x1b, 0xbe, 0x65, 0x27, 0x86, 0xbe, 0xf8, 0xf1, 0x86, 0x3c,
  0xc0, 0xd8, 0x51, 0x3e, 0x8c, 0xc1, 0x88, 0xbd, 0xe8, 0xee, 0x26, 0xbe,
  0x5a, 0x6c, 0xe4, 0xbe, 0xaa, 0x53, 0x08, 0xbf, 0xcf, 0xdb, 0x7d, 0x3e,
  0x88, 0x66, 0xf3, 0x3d, 0xa2, 0xa4, 0xb6, 0x3a, 0x38, 0x15, 0x9d, 0x3e,
  0x49, 0x22, 0xc4, 0x3c, 0x22, 0xad, 0x05, 0x3d, 0xc7, 0x1e, 0xa5, 0xbe,
  0x66, 0x0c, 0xca, 0x3d, 0x0f, 0x75, 0x90, 0x3e, 0xdf, 0x56, 0x07, 0x3e,
  0xbc, 0xdb, 0xf1, 0xbe, 0xb4, 0x4e, 0x12, 0xbd, 0xcc, 0x47, 0x5b, 0x3d,
  0x10, 0xe3, 0xa1, 0xbe, 0x50, 0xe3, 0x23, 0xbf, 0xcf, 0xf4, 0xee, 0xbd,
  0x70, 0xce, 0xf2, 0x3d, 0xbb, 0xa8, 0x4d, 0x3d, 0x7f, 0xe1, 0x00, 0x3f,
  0x3d, 0x5d, 0xc7, 0x3d, 0x2d, 0x62, 0xb5, 0x3d, 0x9d, 0x89, 0x18, 0x3c,
  0x80, 0x12, 0xa9, 0xbd, 0x65, 0x30, 0x0c, 0x3e, 0x6f, 0x2f, 0x56, 0x3e,
  0xd8, 0xde, 0xcd, 0x3d, 0xfb, 0x14, 0x04, 0xbf, 0xc8, 0x33, 0x37, 0x3e,
  0x8b, 0xeb, 0x05, 0x3e, 0xaa, 0x67, 0xc4, 0xbe, 0xa6, 0x20, 0xef, 0xbe,
  0x19, 0xd3, 0xf4, 0xbd, 0x52, 0xf3, 0x8e, 0x3e, 0x61, 0x93, 0xdb, 0x3d,
  0x23, 0xad, 0x33, 0x3d, 0x2c, 0x24, 0x96, 0x3d, 0xa9, 0xb4, 0x12, 0x3e,
  0xf9, 0xc9, 0xac, 0x3d, 0x9c, 0x1f, 0x8f, 0xbe, 0xdc, 0x90, 0x15, 0x3e,
  0xaf, 0xc5, 0x34, 0x3d, 0x75, 0x82, 0xd8, 0x3e, 0x57, 0x2d, 0x55, 0xbe,
  0x63, 0x97, 0xb5, 0x3d, 0x12, 0x99, 0x10, 0xbe, 0x84, 0x5b, 0x93, 0xbe,
  0x46, 0xdf, 0x55, 0xbe, 0x19, 0xd7, 0xea, 0xbd, 0x69, 0x6c, 0x73, 0x3e,
  0x57, 0xc9, 0x15, 0x3e, 0x86, 0x29, 0xb7, 0x3e, 0xd8, 0xf2, 0x5c, 0xbd,
  0x78, 0x64, 0x15, 0x3d, 0x5e, 0x93, 0x7a, 0x3d, 0xb1, 0xe5, 0xe6, 0xbe,
  0xfa, 0x8f, 0x8f, 0x3d, 0x50, 0x02, 0xec, 0xbc, 0x5a, 0x12, 0xea, 0x3e,
  0xec, 0x77, 0xba, 0xbe, 0x2a, 0x37, 0x33, 0x3e, 0x96, 0x52, 0x26, 0x3d,
  0x47, 0x14, 0x8f, 0xbd, 0x60, 0xec, 0x26, 0xbe, 0x90, 0xa1, 0xfb, 0xbe,
  0xe4, 0x57, 0x68, 0x3e, 0xb0, 0x0f, 0x81, 0xbe, 0xe0, 0xfe, 0x61, 0x3e,
  0x1c, 0xed, 0xd6, 0xbc, 0x6c, 0xfe, 0x37, 0x3e, 0x95, 0x7c, 0x32, 0x3d,
  0x5a, 0x04, 0x8f, 0xbf, 0x69, 0xf5, 0x05, 0xbe, 0x3f, 0x1a, 0xc3, 0xbc,
  0xa9, 0x3b, 0x28, 0x3e, 0xfc, 0xdd, 0xfa, 0xbe, 0x39, 0x16, 0x8e, 0x3e,
  0x1f, 0xcc, 0xe5, 0x3d, 0xa9, 0x5a, 0xdf, 0xbe, 0xbf, 0x47, 0xab, 0xbe,
  0x05, 0x15, 0xac, 0xbe, 0x81, 0x49, 0x04, 0x3c, 0x09, 0xff, 0xe1, 0xbc,
  0xbe, 0xbf, 0xa0, 0x3d, 0x59, 0x43, 0xea, 0xbd, 0x4e, 0xf1, 0xca, 0x3e,
  0x27, 0x47, 0x4f, 0xbd, 0xc8, 0xdc, 0x0e, 0xbe, 0x93, 0x31, 0x22, 0x3d,
  0x7a, 0xe3, 0x89, 0x3e, 0x4b, 0xb2, 0xfb, 0xbd, 0xa0, 0xff, 0x93, 0xbe,
  0x96, 0x0a, 0x0b, 0xbf, 0x13, 0xe9, 0x65, 0x3e, 0x81, 0x49, 0x9e, 0x3b,
  0x08, 0x43, 0xd3, 0xbd, 0xa2, 0xc5, 0xab, 0xbd, 0xa8, 0x12, 0xdf, 0xbb,
  0x64, 0xa6, 0xab, 0xbc, 0xb4, 0x85, 0x27, 0xbe, 0x30, 0x53, 0x01, 0x3e,
  0x43, 0x45, 0xf1, 0x3b, 0xde, 0xcf, 0x84, 0x3d, 0x89, 0x4f, 0xed, 0xbc,
  0x30, 0xc3, 0x99, 0xbe, 0xf5, 0xc1, 0xd0, 0x3e, 0xbb, 0x3d, 0x16, 0xbe,
  0x22, 0xaf, 0xa6, 0x3d, 0x2d, 0x6e, 0x88, 0xbe, 0x88, 0x23, 0xe5, 0xbd,
  0xba, 0x26, 0xf4, 0x3c, 0x8c, 0xec, 0x2e, 0x3d, 0xa4, 0x47, 0x48, 0xbd,
  0x5c, 0x1c, 0x3f, 0x3d, 0xa7, 0xcb, 0xdc, 0x3d, 0xf3, 0xcf, 0x9a, 0xbc,
  0x81, 0x04, 0x87, 0x3c, 0xe0, 0x3e, 0x88, 0x3e, 0x7d, 0x5f, 0x6a, 0xbc,
  0xdb, 0x9a, 0xd5, 0x3d, 0x4d, 0x04, 0x73, 0xbe, 0x7d, 0x4e, 0x50, 0x3e,
  0x1b, 0x4e, 0x85, 0xbd, 0x31, 0x24, 0x20, 0xbc, 0xb1, 0x73, 0xe4, 0xbd,
  0xbe, 0xc6, 0x9a, 0x3d, 0xbf, 0x13, 0xd4, 0x3d, 0x10, 0x9d, 0x1b, 0xbd,
  0x23, 0x6f, 0x8c, 0xbd, 0x40, 0x8a, 0x5c, 0x3d, 0x7b, 0xe2, 0x70, 0x3e,
  0x21, 0x4e, 0x34, 0x3e, 0xe5, 0x96, 0x64, 0x3e, 0x67, 0xd7, 0xf2, 0x3c,
  0x11, 0x58, 0xa6, 0x3c, 0x86, 0x00, 0x9a, 0x3e, 0x81, 0x35, 0x89, 0xbe,
  0x70, 0xd2, 0x77, 0x3e, 0x0b, 0xf2, 0x23, 0x3e, 0x16, 0xdc, 0x02, 0xbd,
  0x34, 0x84, 0x71, 0x3d, 0x41, 0x28, 0x09, 0xbd, 0x59, 0x68, 0x0c, 0x3e,
  0x49, 0xad, 0x2d, 0x3d, 0x60, 0xbd, 0xb2, 0xbd, 0xd2, 0x4e, 0x0d, 0x3d,
  0x3b, 0xea, 0x80, 0x3e, 0x82, 0x7a, 0xcb, 0x3d, 0x70, 0x55, 0xb4, 0x3e,
  0x78, 0x6c, 0x04, 0x3d, 0xb4, 0x07, 0x94, 0x3c, 0xc1, 0x95, 0x95, 0x3d,
  0x3e, 0xfd, 0xa0, 0xbe, 0xf6, 0x09, 0x28, 0x3e, 0x73, 0x06, 0x17, 0xbd,
  0xc1, 0x3b, 0xfe, 0xbd, 0xbc, 0xec, 0x4e, 0x3d, 0xea, 0x97, 0x57, 0x3c,
  0x14, 0x2b, 0xfe, 0x3d, 0x52, 0x07, 0x0d, 0x3e, 0x66, 0x83, 0x3c, 0xbd,
  0x26, 0xcf, 0x31, 0xbd, 0xcb, 0x2c, 0xde, 0x3d, 0xc3, 0x47, 0x73, 0x3e,
  0x7d, 0xd4, 0x89, 0x3e, 0x3a, 0x54, 0x11, 0x3e, 0x0c, 0x0d, 0x0a, 0xbc,
  0x7d, 0xed, 0xd3, 0xbd, 0x9b, 0xc7, 0x83, 0xbe, 0x0c, 0x06, 0x96, 0x3d,
  0x47, 0x0e, 0x73, 0xbb, 0x4c, 0x92, 0x68, 0xbd, 0x82, 0xcb, 0x0a, 0x3e,
  0xec, 0x60, 0xb4, 0x3c, 0x6b, 0x3b, 0x3a, 0x3e, 0x98, 0x3c, 0x12, 0x3e,
  0xf1, 0x78, 0xa3, 0xbd, 0xff, 0x9c, 0x82, 0xbd, 0x6c, 0xb0, 0x91, 0x3d,
  0x10, 0xf6, 0x10, 0xbe, 0x04, 0x9e, 0x99, 0x3e, 0x4d, 0x9a, 0xa3, 0x3d,
  0xb1, 0xe1, 0x4e, 0xbb, 0xb7, 0x7f, 0x32, 0xbd, 0x40, 0x36, 0x94, 0xbe,
  0xf5, 0x0d, 0x6f, 0x3e, 0xa6, 0x13, 0x8c, 0xbe, 0x05, 0x57, 0xf1, 0xbc,
  0xac, 0x75, 0xce, 0x3c, 0xc8, 0xa0, 0x69, 0x3e, 0x37, 0x2a, 0xc1, 0x3d,
  0x25, 0x34, 0x01, 0x3d, 0x6d, 0x4c, 0x38, 0xbe, 0xd7, 0x08, 0xd0, 0x3c,
  0xe5, 0x4d, 0x22, 0x3b, 0x0d, 0x55, 0x6d, 0xbe, 0x41, 0xa2, 0xfb, 0x3d,
  0x4d, 0xbb, 0xa1, 0xbe, 0x3d, 0x93, 0x62, 0xbb, 0x13, 0xc9, 0xb0, 0xbd,
  0x49, 0x56, 0x3e, 0xbe, 0xb6, 0xda, 0x52, 0x3d, 0x09, 0x80, 0x1f, 0xbe,
  0xe2, 0xbf, 0x01, 0x3d, 0xcd, 0xc3, 0x09, 0xbe, 0x4d, 0x9c, 0x29, 0xbe,
  0xc6, 0x4f, 0x5a, 0x3d, 0x30, 0x13, 0xe1, 0x3c, 0x11, 0x7a, 0x6a, 0xbe,
  0x78, 0x25, 0x87, 0xbe, 0x83, 0xdd, 0xa0, 0xbe, 0x41, 0xda, 0x9a, 0xbd,
  0x69, 0x01, 0xf3, 0xbe, 0xfa, 0x95, 0xb4, 0xbe, 0xd5, 0x1e, 0x3a, 0xbd,
  0xeb, 0x2a, 0x83, 0xbe, 0x09, 0xc2, 0xa4, 0xbe, 0x15, 0x38, 0xc3, 0xbd,
  0xfc, 0x04, 0x4c, 0xbe, 0x0e, 0x80, 0x24, 0x3d, 0x96, 0xa4, 0xa2, 0xbe,
  0xb6, 0x17, 0x9d, 0xbd, 0xb2, 0x0b, 0x1a, 0xbf, 0xf5, 0x3e, 0x05, 0xbf,
  0x14, 0xde, 0x3b, 0xbe, 0x5e, 0x97, 0xab, 0xbd, 0xc1, 0x0e, 0xcb, 0x3a,
  0x08, 0x1d, 0xc7, 0x3b, 0x5f, 0x9d, 0xd0, 0x3d, 0x26, 0xf0, 0xd3, 0xbe,
  0x7e, 0x5d, 0x0f, 0xbc, 0xb0, 0xfc, 0x28, 0x3b, 0xc1, 0x59, 0x31, 0xbf,
  0x84, 0xdd, 0x5a, 0x3e, 0x02, 0xcf, 0x66, 0x3b, 0x28, 0x96, 0x54, 0x3d,
  0x5e, 0x2e, 0x01, 0x3e, 0xb6, 0xd3, 0x40, 0xbe, 0x25, 0x7c, 0xd7, 0x3b,
  0x9f, 0x52, 0x94, 0xbe, 0x69, 0x15, 0x62, 0x3b, 0xea, 0xb2, 0x59, 0xbd,
  0x94, 0xb0, 0xa1, 0xbc, 0xfd, 0x3a, 0x81, 0xbb, 0x5c, 0x06, 0x0b, 0x3e,
  0xe8, 0x12, 0x4d, 0xbe, 0x92, 0x35, 0xea, 0xbc, 0x79, 0x26, 0xd3, 0xbd,
  0x21, 0x25, 0x17, 0xbf, 0x94, 0xaa, 0xb7, 0xbc, 0x53, 0xf2, 0xfb, 0xbc,
  0xeb, 0xa4, 0x14, 0xbc, 0xff, 0xa7, 0xb8, 0x3d, 0x1c, 0x11, 0x92, 0xbe,
  0x90, 0x4b, 0x9d, 0xbd, 0x9f, 0xbf, 0x31, 0x3e, 0x49, 0x96, 0x50, 0xbd,
  0x7a, 0x28, 0x1a, 0xbe, 0x37, 0xbc, 0xec, 0xbc, 0xe0, 0xa2, 0xc0, 0x3d,
  0x15, 0xd1, 0xc6, 0xbd, 0x1d, 0x87, 0x93, 0xbe, 0xb0, 0x56, 0x89, 0xbb,
  0xb5, 0x95, 0xb0, 0x3c, 0xe0, 0x06, 0x65, 0xbe, 0xf2, 0x0f, 0x18, 0xbe,
  0x83, 0xe3, 0x0e, 0x3d, 0xf6, 0xf0, 0x83, 0x3d, 0x3c, 0xd3, 0x74, 0xbd,
  0x88, 0x2e, 0xf7, 0xbc, 0xd8, 0x13, 0x0d, 0x3e, 0x80, 0x77, 0x54, 0x3d,
  0x6f, 0xc3, 0x14, 0x3d, 0x18, 0xa8, 0x71, 0xbe, 0x52, 0x79, 0xab, 0x3d,
  0xf9, 0xea, 0xa1, 0xbc, 0x53, 0x83, 0xbc, 0xbd, 0xef, 0xf0, 0x99, 0xbe,
  0x60, 0xa1, 0x19, 0xbd, 0xf6, 0x35, 0xc8, 0x3c, 0xc7, 0x54, 0xd1, 0xbe,
  0x95, 0xc3, 0x06, 0x3d, 0xfc, 0xe8, 0x34, 0xbe, 0x48, 0xbc, 0xf2, 0x3d,
  0xd9, 0xf2, 0x0e, 0xbe, 0x76, 0x61, 0xa4, 0xbd, 0xe9, 0xe5, 0x0c, 0x3e,
  0x7e, 0xdf, 0x03, 0x3d, 0xff, 0xd9, 0x16, 0xbe, 0xe3, 0x17, 0x44, 0xbd,
  0x85, 0xbd, 0xb7, 0xbb, 0x18, 0x3c, 0x26, 0xbe, 0x34, 0x08, 0x94, 0x3d,
  0x3d, 0x6b, 0x8d, 0xbe, 0x02, 0xac, 0xb9, 0x3c, 0x2c, 0xda, 0x26, 0xba,
  0xa8, 0x2c, 0xc2, 0xbc, 0x0c, 0x8e, 0x10, 0x3e, 0x8d, 0xb7, 0x15, 0x3e,
  0x44, 0x37, 0xab, 0x3c, 0xbe, 0x8c, 0x2c, 0xbe, 0x0f, 0xaf, 0x34, 0xbd,
  0x14, 0x67, 0x16, 0x3d, 0x27, 0x88, 0x69, 0x3d, 0xfb, 0xfb, 0xa0, 0x3b,
  0xff, 0x81, 0xdc, 0xbb, 0xb7, 0xf7, 0xe3, 0x3d, 0x2f, 0xbf, 0x7f, 0xbd,
  0x9c, 0x17, 0x2c, 0x3d, 0x3d, 0xa1, 0xa7, 0xbe, 0x08, 0x58, 0x94, 0x3d,
  0xdf, 0xee, 0xdb, 0x3d, 0xf1, 0xa5, 0x40, 0xbe, 0xb3, 0xc6, 0x1e, 0xbe,
  0x9f, 0xbf, 0x7a, 0x3e, 0x47, 0x0f, 0xb4, 0x3d, 0xfc, 0x61, 0xa3, 0x3e,
  0xd8, 0x29, 0xc9, 0xbe, 0xee, 0xa1, 0xfd, 0xbc, 0xad, 0xf2, 0x98, 0x3d,
  0x24, 0x9f, 0x37, 0xbf, 0x95, 0xef, 0xba, 0xbe, 0x39, 0xe6, 0x0f, 0xbe,
  0xd1, 0x76, 0x85, 0xbe, 0xf4, 0x8b, 0xca, 0xbe, 0x3e, 0xde, 0xdc, 0xbe,
  0x4b, 0x02, 0x83, 0xbc, 0x38, 0xd2, 0x44, 0xbe, 0x02, 0xde, 0xef, 0xbe,
  0xc4, 0x33, 0x30, 0xbe, 0x6a, 0x52, 0x11, 0xbf, 0xcf, 0x9a, 0x64, 0xbf,
  0x9f, 0xf9, 0x65, 0xbf, 0x54, 0xf1, 0x95, 0xbd, 0x89, 0xa3, 0x2b, 0xbf,
  0xe8, 0xb0, 0xe8, 0xbe, 0x54, 0x6a, 0x96, 0xbe, 0x5f, 0x45, 0xc4, 0xbc,
  0xa0, 0x80, 0x97, 0xbe, 0x10, 0x0a, 0x25, 0x3e, 0x9a, 0x62, 0xc7, 0xbd,
  0x9f, 0x5a, 0x7d, 0xbe, 0xee, 0xf8, 0x47, 0xbc, 0xd3, 0x7a, 0x91, 0xbe,
  0x18, 0x4d, 0x4f, 0xbf, 0xa9, 0xdf, 0xa8, 0x3d, 0x6c, 0xe7, 0x32, 0xbd,
  0x3d, 0xe9, 0x80, 0xbe, 0x1f, 0xfe, 0x15, 0xbf, 0x94, 0x1e, 0x0d, 0xbd,
  0x40, 0xba, 0x7e, 0x3d, 0x1f, 0x28, 0x42, 0xbd, 0x24, 0xbf, 0xbe, 0xbe,
  0x3c, 0x69, 0x14, 0xbe, 0x06, 0x8b, 0x9c, 0xbe, 0x37, 0xac, 0x04, 0x3e,
  0xc4, 0xd8, 0xa7, 0xbe, 0xcb, 0xd5, 0x92, 0xbe, 0xd3, 0x8f, 0x9c, 0xbc,
  0x85, 0x0a, 0x19, 0xbe, 0xd5, 0xf6, 0x64, 0xbf, 0x46, 0x3a, 0x5f, 0x39,
  0x66, 0xef, 0x2a, 0xbe, 0xe2, 0x39, 0xea, 0xbe, 0x6e, 0x6d, 0xd5, 0xbe,
  0xbc, 0xfe, 0xed, 0xbe, 0xe0, 0xb9, 0x18, 0xbe, 0xf7, 0x34, 0x9a, 0xbe,
  0x32, 0x8e, 0x89, 0xbe, 0x20, 0x65, 0x4c, 0xbe, 0xef, 0x67, 0x0d, 0xbf,
  0x18, 0x48, 0xec, 0xbc, 0x85, 0x9f, 0xbb, 0xbe, 0x2f, 0x4e, 0xbc, 0xbe,
  0x4d, 0x56, 0x2f, 0xbd, 0xbb, 0x0a, 0xd8, 0xbe, 0x55, 0x2d, 0x12, 0xbf,
  0x96, 0x88, 0x3b, 0x3d, 0xe5, 0xe8, 0x2d, 0xbe, 0xdf, 0x74, 0xbc, 0xbe,
  0x1a, 0xd4, 0x24, 0xbf, 0x4e, 0x56, 0x82, 0xbe, 0x82, 0xa5, 0xbf, 0xbd,
  0xfd, 0xfe, 0x5b, 0xbe, 0x48, 0xbd, 0x07, 0xbe, 0xc3, 0x03, 0xbf, 0xbd,
  0x41, 0xe5, 0x67, 0x3d, 0x5e, 0xe2, 0xbc, 0x3d, 0xe9, 0xe7, 0x4f, 0xbd,
  0x4e, 0xea, 0xc6, 0xbe, 0xdc, 0xcb, 0xb7, 0xba, 0x67, 0x19, 0x5f, 0x3d,
  0x20, 0x20, 0x5d, 0x3e, 0xdb, 0x3d, 0xdb, 0x3e, 0x4e, 0xda, 0xc7, 0x3e,
  0x07, 0xa3, 0xaa, 0xbd, 0x38, 0x6e, 0xd8, 0xbe, 0x8f, 0x99, 0x6e, 0xbe,
  0x17, 0x84, 0xe0, 0xbd, 0xce, 0x82, 0xac, 0xbe, 0x1d, 0xa4, 0x78, 0x3d,
  0x74, 0x32, 0xc4, 0x3d, 0xc7, 0x62, 0xc2, 0xbc, 0x8d, 0x99, 0x2e, 0x3e,
  0xe6, 0x1b, 0x06, 0xbe, 0xde, 0xb8, 0x9c, 0xbe, 0xc4, 0x88, 0x12, 0xbd,
  0xdb, 0xf7, 0xc5, 0xbc, 0xc6, 0x59, 0xe1, 0xbc, 0xeb, 0x1f, 0x3e, 0x3e,
  0x0b, 0xe5, 0xce, 0x3e, 0x53, 0x4e, 0x92, 0x3d, 0x29, 0x5f, 0xe6, 0xbd,
  0xfa, 0xf8, 0xb3, 0xbe, 0x1e, 0x94, 0x6c, 0xbe, 0xdd, 0x58, 0x7a, 0xbd,
  0x8a, 0x5c, 0xfe, 0x3d, 0xfe, 0xe7, 0x06, 0x3e, 0x0d, 0x56, 0x05, 0x3e,
  0xac, 0x38, 0xd7, 0x3c, 0x3b, 0x6c, 0xf9, 0xbd, 0x14, 0x28, 0xb9, 0x3c,
  0xfc, 0xe1, 0xa0, 0x3d, 0xc3, 0x94, 0x0b, 0x3e, 0x25, 0x04, 0x36, 0xbd,
  0x74, 0x3d, 0x17, 0xbe, 0xcb, 0xaa, 0x53, 0x3e, 0x5e, 0xb7, 0x6d, 0x3d,
  0x8f, 0x2c, 0x74, 0x3e, 0x77, 0x93, 0x26, 0xbe, 0x5d, 0x44, 0x85, 0x3d,
  0x53, 0xc2, 0x55, 0xba, 0xed, 0xc5, 0x87, 0x3d, 0x2d, 0xcb, 0x80, 0x3e,
  0xa6, 0x75, 0x85, 0x3d, 0x75, 0xf7, 0x3f, 0x3e, 0xff, 0xb2, 0xb2, 0xbd,
  0xb6, 0xa0, 0xca, 0xbe, 0x37, 0xbe, 0x1c, 0x3d, 0x11, 0x0b, 0xb8, 0x3d,
  0xbd, 0x12, 0xa4, 0x3d, 0x72, 0x59, 0x6c, 0xbe, 0x6f, 0x48, 0x91, 0x3e,
  0x5e, 0x9a, 0x00, 0xbe, 0xf9, 0xa8, 0x85, 0xbe, 0xc0, 0xa7, 0x30, 0xbf,
  0x1b, 0x7b, 0x6c, 0x3e, 0x0f, 0x0b, 0x0d, 0x3c, 0x9a, 0x3c, 0x56, 0x3d,
  0x7f, 0xdb, 0x2c, 0xbe, 0x43, 0x89, 0x1b, 0x3d, 0x2a, 0x82, 0x4b, 0x3e,
  0x13, 0x50, 0xb7, 0x3d, 0x60, 0x81, 0x71, 0xbe, 0xbe, 0xb1, 0x60, 0x3c,
  0xf3, 0x1c, 0xad, 0xbe, 0x85, 0xf6, 0x33, 0xbe, 0x5e, 0x4f, 0x9a, 0x3d,
  0xac, 0x5b, 0x9b, 0xbd, 0xc2, 0x84, 0x4f, 0x3c, 0x03, 0x80, 0xad, 0x3d,
  0xbb, 0x37, 0xea, 0x3c, 0xc8, 0x4f, 0x8f, 0xbd, 0xcc, 0xd5, 0x8c, 0x3d,
  0x70, 0x5b, 0x88, 0xbd, 0x80, 0x44, 0xd6, 0xbd, 0x8d, 0x0c, 0xd8, 0xbe,
  0x15, 0x58, 0xf7, 0xbd, 0xa1, 0xa5, 0x7a, 0xbe, 0xb5, 0xd1, 0x90, 0xbe,
  0x92, 0x92, 0x92, 0xbc, 0x1d, 0x7a, 0xf5, 0xbe, 0xb4, 0xb2, 0x9b, 0xbe,
  0xad, 0x57, 0x42, 0x3e, 0x56, 0x50, 0x84, 0xbe, 0x98, 0x26, 0x0c, 0x3d,
  0x81, 0xf7, 0x47, 0x3d, 0x09, 0x58, 0x28, 0x3b, 0xc0, 0xce, 0x8f, 0x3c,
  0x78, 0xaa, 0xe8, 0xbe, 0xa3, 0xb5, 0x1c, 0xbf, 0x0b, 0x7a, 0x5f, 0xbb,
  0x8a, 0x9a, 0xdd, 0xbe, 0x01, 0x02, 0xc3, 0xbe, 0x9e, 0x64, 0x2b, 0xbe,
  0x5e, 0xc5, 0x8f, 0xbd, 0x7b, 0xac, 0xc0, 0xbc, 0xd1, 0xa5, 0x5f, 0xbe,
  0x41, 0x51, 0x02, 0xbf, 0x50, 0x51, 0x83, 0xbe, 0xc5, 0x8b, 0x29, 0xbe,
  0x67, 0x9e, 0x8e, 0xbe, 0x0c, 0x9f, 0x69, 0x3d, 0x0d, 0x34, 0xfd, 0xbd,
  0xcc, 0xdd, 0x91, 0xbe, 0x8c, 0x9f, 0x63, 0xbf, 0xc7, 0x92, 0xd2, 0xbe,
  0x94, 0x1b, 0xa0, 0xbd, 0x71, 0x82, 0x9d, 0xbe, 0xf5, 0x25, 0x2e, 0xbd,
  0xed, 0x1f, 0xe0, 0xbc, 0xd2, 0xce, 0x33, 0xbe, 0xf8, 0xd9, 0xdd, 0xba,
  0x1b, 0x08, 0x45, 0xbe, 0x75, 0x4d, 0x42, 0xbf, 0xa9, 0x4e, 0x48, 0xbd,
  0xf1, 0xfb, 0x31, 0xbe, 0xde, 0x4c, 0x7f, 0xbe, 0x61, 0x16, 0xcd, 0xbd,
  0xf8, 0x02, 0xd5, 0xbd, 0xee, 0xdd, 0xab, 0xbe, 0x7b, 0x27, 0x04, 0xbf,
  0x77, 0xd7, 0x90, 0xbd, 0x81, 0x1b, 0xbd, 0xbd, 0x73, 0x23, 0x22, 0xbe,
  0x37, 0xa2, 0x66, 0xbc, 0x90, 0xa2, 0x8b, 0xbe, 0x22, 0x9c, 0x54, 0xbe,
  0x1d, 0x59, 0xbe, 0xbc, 0x68, 0x54, 0xd7, 0xbe, 0x3e, 0x38, 0x0b, 0xbf,
  0xa1, 0x5e, 0x51, 0xbe, 0x9e, 0x0a, 0x0b, 0xbe, 0x20, 0x6c, 0xbd, 0xbe,
  0x2a, 0x72, 0x48, 0x3d, 0x66, 0x8b, 0x72, 0xbd, 0x46, 0x29, 0x53, 0xbe,
  0xa8, 0xfc, 0xb8, 0xbe, 0x90, 0x8f, 0xc2, 0xbe, 0x9a, 0x5d, 0xb8, 0xbd,
  0x3b, 0x71, 0x88, 0xbe, 0xfd, 0xb9, 0x39, 0x3c, 0xfa, 0x53, 0xcf, 0x3d,
  0x98, 0x33, 0xaf, 0xbe, 0x6f, 0x69, 0x29, 0xbd, 0xa3, 0x42, 0x32, 0x3c,
  0xa5, 0xe7, 0xba, 0x3c, 0x3c, 0x08, 0xa8, 0xbe, 0x11, 0xb8, 0x8d, 0xbd,
  0xb2, 0x44, 0x9b, 0xbd, 0x5e, 0xe3, 0x3a, 0xbe, 0xd4, 0x69, 0x3a, 0xbe,
  0xda, 0x89, 0xf8, 0x3c, 0xb6, 0xb5, 0x84, 0xbe, 0x7f, 0xb3, 0x89, 0xbd,
  0x38, 0xae, 0xfd, 0xbd, 0xe1, 0x39, 0xae, 0xbd, 0x31, 0x7b, 0xf6, 0xb6,
  0x44, 0x63, 0x84, 0x3e, 0x09, 0x45, 0x1d, 0xbd, 0x9e, 0x7c, 0x94, 0xbe,
  0xaa, 0x52, 0xff, 0xbd, 0xd9, 0xf4, 0x0d, 0xbd, 0x9c, 0x4b, 0x3e, 0x3f,
  0x95, 0x2a, 0x81, 0xbe, 0x31, 0x6f, 0x99, 0xbe, 0x91, 0xd0, 0x5d, 0x3d,
  0x40, 0xf6, 0x54, 0xbe, 0x3d, 0xd3, 0xda, 0xbd, 0x9d, 0x23, 0x3a, 0xbe,
  0x4c, 0xb1, 0x97, 0xbe, 0x47, 0x37, 0x86, 0xbe, 0x08, 0xca, 0xeb, 0xbd,
  0x94, 0x84, 0x33, 0x3e, 0x83, 0xc7, 0x78, 0x3f, 0xd1, 0x9f, 0x45, 0xbc,
  0x2a, 0x15, 0x5d, 0xbe, 0xa9, 0x9b, 0x83, 0x3b, 0xd1, 0x2b, 0xf1, 0xbd,
  0x2b, 0xc9, 0xe9, 0x3e, 0x8d, 0x75, 0x29, 0xbe, 0x88, 0xed, 0x69, 0xbe,
  0x9b, 0xb6, 0x30, 0xbe, 0xe3, 0x76, 0x77, 0xbe, 0x80, 0x0c, 0x23, 0xbe,
  0x64, 0x86, 0x86, 0xbd, 0x64, 0x87, 0xca, 0xbc, 0x3c, 0x23, 0x3c, 0xbe,
  0xb2, 0xfd, 0x80, 0x3d, 0x45, 0xd7, 0x95, 0xbd, 0x4c, 0x67, 0x6c, 0x3f,
  0x82, 0x18, 0x1b, 0xbe, 0xe3, 0x3d, 0x91, 0xbc, 0x2d, 0xc8, 0x84, 0xbe,
  0xe5, 0xe3, 0x97, 0xbe, 0x32, 0x8d, 0x08, 0x3f, 0xf8, 0x00, 0x01, 0x3e,
  0xad, 0xd4, 0x4b, 0xbd, 0x21, 0xd4, 0x87, 0x3d, 0x8f, 0x7d, 0x6b, 0xbd,
  0x3d, 0x60, 0xf1, 0x3c, 0xa5, 0x18, 0x88, 0xbd, 0x8e, 0x7a, 0xc2, 0xbd,
  0x9e, 0x9f, 0xa1, 0xbe, 0x3d, 0x2f, 0x59, 0x3e, 0x82, 0x0a, 0x04, 0xbe,
  0x1f, 0x48, 0x1c, 0x3f, 0xa8, 0xca, 0x4c, 0x3d, 0x50, 0x38, 0x4d, 0xbe,
  0x0d, 0x41, 0x30, 0xbd, 0xe1, 0x03, 0x5c, 0xbd, 0x88, 0x52, 0x96, 0x3e,
  0x41, 0x9a, 0x33, 0x3d, 0x5a, 0xa2, 0xa9, 0xbd, 0x17, 0xa9, 0xfc, 0x3d,
  0x03, 0xb5, 0x03, 0x3d, 0xe7, 0x78, 0x8a, 0x38, 0x58, 0x37, 0x88, 0xbd,
  0x65, 0xc6, 0x84, 0xbe, 0xb0, 0xa4, 0x89, 0x3d, 0xd9, 0xb9, 0x87, 0x3c,
  0x80, 0x4f, 0x41, 0xbe, 0x64, 0x91, 0x06, 0x3f, 0xa4, 0x58, 0xd0, 0x3d,
  0x72, 0xca, 0x9c, 0xbe, 0xad, 0xb6, 0x81, 0xbe, 0xca, 0x01, 0x7a, 0xbc,
  0x87, 0xb5, 0x0f, 0x3f, 0x87, 0x64, 0xf4, 0xbd, 0xe5, 0x63, 0x15, 0x3c,
  0x18, 0xcf, 0x47, 0xbe, 0x8f, 0x77, 0x01, 0x3d, 0xa6, 0x00, 0x17, 0x3d,
  0xe3, 0x31, 0x4c, 0xbc, 0x9c, 0xad, 0x6b, 0xbd, 0xdc, 0xb2, 0x57, 0xbe,
  0xb1, 0x57, 0x0d, 0xbe, 0x8c, 0x9a, 0x5c, 0x3d, 0x85, 0x54, 0x2e, 0x3f,
  0xb3, 0x6f, 0x14, 0x3d, 0xd1, 0x79, 0x2c, 0xbe, 0x9e, 0x2e, 0x68, 0xbe,
  0x70, 0x09, 0x2d, 0xbd, 0xf9, 0x72, 0xbf, 0x3e, 0xc5, 0xac, 0x15, 0xbc,
  0x35, 0x71, 0xd6, 0xbd, 0x56, 0xfa, 0x5c, 0xbe, 0xbd, 0xf4, 0xa2, 0xbd,
  0x38, 0x48, 0xb9, 0xbd, 0x84, 0x5b, 0x88, 0xbe, 0xfd, 0x53, 0x2f, 0xbd,
  0x48, 0x5a, 0xe4, 0xbe, 0xf8, 0x60, 0x64, 0xbe, 0x9f, 0x97, 0xbf, 0x3d,
  0x83, 0xd9, 0x83, 0x3e, 0x85, 0x31, 0xeb, 0xbd, 0x09, 0xc3, 0x67, 0xbe,
  0xc5, 0x19, 0x93, 0xbe, 0x8f, 0x98, 0x81, 0xbd, 0x21, 0x13, 0x02, 0x3c,
  0x55, 0xa3, 0x16, 0xbe, 0x47, 0x4c, 0x31, 0xbe, 0x3b, 0xa2, 0x82, 0xbc,
  0xf0, 0xfa, 0xe5, 0x3b, 0x62, 0x78, 0x34, 0x3d, 0xc7, 0xe7, 0x88, 0xbe,
  0x43, 0x92, 0x6e, 0xbe, 0x0a, 0x90, 0xee, 0xbd, 0x66, 0x14, 0xea, 0xbc,
  0x9f, 0xba, 0x05, 0x3e, 0x41, 0xfe, 0x22, 0x3e, 0xec, 0x7b, 0x22, 0xbc,
  0xd0, 0xff, 0x3d, 0xbe, 0x75, 0x38, 0x41, 0xbe, 0xe2, 0x53, 0x31, 0xbe,
  0xe7, 0x92, 0x36, 0x3f, 0xac, 0xa5, 0xcc, 0xbd, 0x12, 0xed, 0x08, 0xbd,
  0x29, 0x63, 0x6e, 0xbd, 0x39, 0x23, 0x29, 0xbe, 0xdd, 0xf5, 0xaf, 0xbe,
  0x75, 0x6d, 0x1d, 0xbe, 0x2f, 0x64, 0x1d, 0xbd, 0xa5, 0x5f, 0xcf, 0xbc,
  0xdb, 0xe7, 0x99, 0xbe, 0x49, 0x8b, 0xe8, 0x3d, 0x64, 0xd4, 0x75, 0x3f,
  0xf9, 0x4b, 0xa4, 0x3d, 0x93, 0xd8, 0xa9, 0xbd, 0x3f, 0xe8, 0xf1, 0xbd,
  0x1d, 0x2f, 0x15, 0xbe, 0x05, 0x06, 0x03, 0x3f, 0xf3, 0x9e, 0x24, 0xbe,
  0xcd, 0xbf, 0x94, 0xbd, 0xa8, 0xaf, 0x04, 0xbe, 0x7a, 0x5a, 0x7a, 0x3c,
  0x22, 0x87, 0xf8, 0xba, 0xcd, 0x74, 0xa8, 0xbd, 0xf1, 0x85, 0xce, 0xbc,
  0x10, 0xa0, 0x5d, 0xbe, 0x87, 0xdd, 0x97, 0xbc, 0x29, 0x6e, 0x0c, 0x3e,
  0x88, 0xd2, 0x75, 0x3f, 0x4f, 0x8f, 0x70, 0xbe, 0x4e, 0xce, 0xb6, 0xbc,
  0xcb, 0xd0, 0xa4, 0x3d, 0x52, 0xaa, 0x9d, 0xbd, 0x02, 0x78, 0x3d, 0x3f,
  0x9a, 0xcc, 0xdc, 0x3c, 0xe2, 0xd1, 0xad, 0xbc, 0xdf, 0x7a, 0x27, 0xbe,
  0x35, 0xe3, 0xfe, 0xbc, 0xe2, 0xbb, 0xa8, 0xbd, 0x74, 0xe8, 0x44, 0xbc,
  0x82, 0xbe, 0x8d, 0xbd, 0xea, 0x3d, 0x55, 0xbd, 0x8b, 0x47, 0xc2, 0xbe,
  0xb4, 0x08, 0x44, 0x3e, 0x4f, 0xfb, 0x64, 0x3f, 0x9b, 0x25, 0x32, 0xbe,
  0x96, 0x64, 0x44, 0xbe, 0x23, 0x2a, 0x5b, 0xbc, 0x1a, 0xb1, 0xa9, 0xbe,
  0x26, 0xd7, 0x1d, 0x3f, 0xeb, 0xa2, 0x40, 0xbe, 0x36, 0x76, 0x95, 0xbe,
  0x39, 0x0f, 0x09, 0x3e, 0xb1, 0x16, 0x70, 0x3e, 0x22, 0x4f, 0x97, 0xbe,
  0x46, 0x51, 0xc9, 0xbd, 0x65, 0x1a, 0xe9, 0xbd, 0x0f, 0xac, 0x2b, 0x3d,
  0x86, 0x12, 0xbf, 0x3d, 0x2a, 0x63, 0xf3, 0xbd, 0xe9, 0xa3, 0x93, 0x3f,
  0x0c, 0xb0, 0x2d, 0x3e, 0x81, 0x6c, 0xc9, 0xbd, 0x78, 0xf4, 0x06, 0x3e,
  0xbe, 0x3a, 0x89, 0xbd, 0x9e, 0x1c, 0xcc, 0x3e, 0xe7, 0xed, 0x18, 0xbe,
  0x0b, 0x45, 0x80, 0xbe, 0x68, 0xb6, 0xb7, 0x3d, 0xb6, 0x59, 0x6a, 0xbd,
  0x1f, 0xcd, 0xbe, 0x3d, 0xde, 0x91, 0x86, 0xbe, 0xd8, 0xd6, 0x11, 0xbe,
  0x41, 0xea, 0x5f, 0x3c, 0xbb, 0x5c, 0xc4, 0x3d, 0x3e, 0x2b, 0x40, 0x3a,
  0x54, 0xc0, 0x73, 0x3f, 0x59, 0xbf, 0x0b, 0xbe, 0xcd, 0x2a, 0x1a, 0xbe,
  0x61, 0x93, 0x9e, 0x3d, 0xa6, 0xc8, 0x93, 0xbe, 0x08, 0x72, 0xd1, 0x3e,
  0x69, 0x6a, 0x0e, 0xbe, 0x02, 0x49, 0x8a, 0xbe, 0xdc, 0x86, 0x2b, 0xbe,
  0x74, 0x9e, 0xaf, 0xbd, 0xdc, 0x4b, 0xab, 0xbd, 0x81, 0xdc, 0x28, 0xbe,
  0x5d, 0x7e, 0x83, 0xbd, 0xf0, 0x9a, 0xf6, 0xbd, 0x27, 0x03, 0xa0, 0xbe,
  0xd1, 0xf0, 0xee, 0xbd, 0x3b, 0x0e, 0xfa, 0x3e, 0x8b, 0xaa, 0xd1, 0x3c,
  0x5e, 0x48, 0x46, 0xbe, 0x5b, 0x22, 0x05, 0xbe, 0x73, 0x90, 0x73, 0xbe,
  0x7e, 0x00, 0xea, 0xbd, 0xcf, 0x72, 0x10, 0xbe, 0x7e, 0xec, 0xc4, 0xbe,
  0x31, 0x56, 0x03, 0xbe, 0x52, 0x17, 0x90, 0x3e, 0xac, 0xed, 0xae, 0xbe,
  0x6e, 0xb0, 0x78, 0xbe, 0x63, 0x69, 0xdf, 0x3d, 0x26, 0xc0, 0x49, 0x3c,
  0xab, 0x6b, 0xf6, 0x3c, 0xcc, 0xd1, 0xa6, 0x3d, 0x5a, 0x0a, 0xe6, 0x3d,
  0x79, 0xbf, 0x0b, 0xbe, 0xfb, 0xa6, 0x5a, 0x3c, 0xc1, 0x89, 0x81, 0x3d,
  0xdf, 0xd1, 0x69, 0x3d, 0xa1, 0xa0, 0x6e, 0xbc, 0x10, 0x27, 0x08, 0x3e,
  0xdf, 0xdd, 0xd6, 0xbb, 0x30, 0x19, 0x3c, 0xbc, 0x09, 0x9c, 0x3e, 0xbe,
  0x89, 0x00, 0x0d, 0x3e, 0x42, 0x7a, 0x2a, 0x3e, 0xab, 0x0a, 0xe3, 0xb9,
  0xdc, 0xfe, 0x0f, 0xbe, 0x38, 0x2b, 0xfe, 0x3d, 0x70, 0x5c, 0xd0, 0x3d,
  0x95, 0xe9, 0x81, 0x3e, 0x48, 0x83, 0x8c, 0xbd, 0x3f, 0xf1, 0x19, 0xbd,
  0x2d, 0x38, 0x02, 0xbd, 0x48, 0xe1, 0x39, 0x3d, 0x4e, 0x30, 0x0b, 0x3d,
  0xa2, 0x07, 0xd0, 0x3d, 0x96, 0x97, 0x67, 0x3d, 0x26, 0xc4, 0x6d, 0xbc,
  0xe5, 0x50, 0x78, 0xbe, 0x59, 0x6a, 0xf9, 0x3d, 0x14, 0x61, 0xda, 0x3d,
  0x8b, 0xd5, 0x3e, 0xbe, 0x12, 0x98, 0x59, 0xbe, 0xe7, 0x96, 0x95, 0x3d,
  0xd3, 0x64, 0x8b, 0xba, 0xdb, 0xe0, 0x2c, 0xbd, 0x61, 0x5f, 0x69, 0xbd,
  0x2c, 0x32, 0x09, 0xbd, 0xa7, 0x24, 0x53, 0x3c, 0x24, 0xdf, 0x3a, 0xbe,
  0x15, 0x1a, 0x70, 0x3d, 0x6f, 0x3d, 0x8d, 0xbd, 0x58, 0x67, 0x9d, 0x3d,
  0x75, 0x43, 0x07, 0xbe, 0xf6, 0x46, 0x33, 0xbe, 0xeb, 0x9e, 0x0c, 0x3e,
  0x24, 0x01, 0x83, 0x3c, 0x7f, 0x7e, 0x84, 0xbd, 0xe2, 0x3a, 0x7d, 0xbe,
  0x2c, 0x3f, 0x1a, 0xbd, 0x66, 0x5f, 0xae, 0x3c, 0xab, 0x26, 0x8c, 0x3d,
  0xaa, 0x5c, 0xd8, 0x3c, 0xb1, 0xbf, 0xb6, 0xbb, 0xe9, 0x04, 0xd0, 0x3d,
  0x51, 0x37, 0x1d, 0xbe, 0xe1, 0xb0, 0x90, 0x3d, 0x02, 0xba, 0x13, 0xbe,
  0x94, 0x18, 0x28, 0xbb, 0x24, 0x5a, 0x15, 0xbd, 0xd4, 0x89, 0xad, 0x3c,
  0x6a, 0xb0, 0xa3, 0xbd, 0xb3, 0x57, 0x58, 0xbd, 0x71, 0x60, 0x9f, 0x3d,
  0xcb, 0xef, 0xe3, 0xbd, 0x5b, 0x68, 0x33, 0x3d, 0x70, 0x03, 0x2a, 0x3d,
  0xa0, 0xe0, 0x3c, 0x3e, 0xe4, 0x82, 0x12, 0x3c, 0x58, 0xf9, 0x0e, 0xbc,
  0x46, 0xbd, 0x26, 0x3d, 0x18, 0x22, 0x87, 0x3d, 0xe7, 0xb7, 0xc8, 0xbd,
  0x7d, 0x60, 0x84, 0x3d, 0xe1, 0xa2, 0xa7, 0xbd, 0xd5, 0xda, 0x96, 0xbd,
  0x60, 0xfd, 0x4f, 0x3b, 0x6b, 0xa1, 0x93, 0xbe, 0x32, 0x1b, 0x08, 0xbe,
  0xa0, 0x19, 0xf2, 0x3d, 0x12, 0xf3, 0xdc, 0xbc, 0x01, 0xfb, 0x2d, 0x3e,
  0x9e, 0xbc, 0x73, 0x3d, 0x76, 0x9e, 0xfb, 0xbd, 0x26, 0xe4, 0xbc, 0x3c,
  0x59, 0xeb, 0xe6, 0x3b, 0x5d, 0x17, 0x4f, 0x3e, 0x35, 0x05, 0x1d, 0x3e,
  0xe6, 0xc8, 0x98, 0x3d, 0x0e, 0x3e, 0x16, 0x3d, 0x85, 0xdc, 0x1b, 0xbd,
  0xd7, 0x7b, 0xa5, 0xbc, 0x9d, 0x3a, 0x1f, 0xbd, 0x4e, 0xa9, 0x99, 0x3d,
  0x5e, 0xa2, 0x96, 0x3d, 0x13, 0xca, 0xb9, 0x3d, 0x1c, 0x27, 0x86, 0xbb,
  0x91, 0xa9, 0xcf, 0xbb, 0xfa, 0xa0, 0x2a, 0x3d, 0xdb, 0xf1, 0xfd, 0xbd,
  0x30, 0xa5, 0x91, 0xbe, 0xbc, 0xbb, 0x1f, 0xbc, 0x61, 0x56, 0xc6, 0xbd,
  0x6b, 0x69, 0xdd, 0xbb, 0x40, 0xe3, 0xa7, 0x3c, 0x10, 0x8d, 0xc8, 0x3d,
  0xe1, 0x6d, 0xca, 0x3c, 0x3d, 0x69, 0x85, 0xbe, 0x2c, 0xdc, 0x0e, 0xbc,
  0x98, 0x14, 0xeb, 0xbb, 0xe8, 0x9a, 0x7c, 0xbc, 0x66, 0x26, 0xca, 0xbe,
  0xc3, 0x19, 0x10, 0x3c, 0xa0, 0xb7, 0x94, 0x3d, 0xd4, 0xef, 0xaa, 0x3d,
  0x3b, 0xf9, 0xbf, 0xbd, 0x4a, 0xb8, 0x09, 0x3e, 0x0b, 0xe9, 0x40, 0xbe,
  0x9e, 0x17, 0x77, 0xbd, 0x3e, 0x7d, 0xd8, 0xbd, 0x9e, 0xe6, 0x97, 0xbd,
  0x7a, 0xb4, 0x0a, 0x3d, 0xd0, 0xe6, 0x57, 0x3d, 0x4a, 0x17, 0x8e, 0x3d,
  0x06, 0xe3, 0x03, 0xbe, 0xfe, 0x65, 0x79, 0x3b, 0xe9, 0x5c, 0x77, 0xbe,
  0x18, 0xda, 0x53, 0xbf, 0xeb, 0x1a, 0x1c, 0x3e, 0x5b, 0x50, 0xa9, 0x3e,
  0xa1, 0x3a, 0x64, 0xbd, 0xc6, 0x43, 0x67, 0xbe, 0x67, 0x61, 0x24, 0x3e,
  0x54, 0xfe, 0x67, 0xbe, 0x01, 0xf7, 0xaf, 0xbd, 0x21, 0xb1, 0xd7, 0xbd,
  0x5e, 0x4e, 0x1b, 0xbe, 0xda, 0x78, 0xa4, 0x3e, 0x84, 0x09, 0x32, 0xbe,
  0xfa, 0xde, 0xc3, 0x3c, 0x8b, 0x3b, 0x94, 0x3d, 0x67, 0xf8, 0xc0, 0xbe,
  0x67, 0x06, 0x03, 0xbf, 0x2e, 0x71, 0xac, 0xbe, 0x76, 0x3f, 0x83, 0x3e,
  0xc1, 0x2c, 0x86, 0x3d, 0x04, 0x7a, 0x2a, 0x3e, 0x4b, 0xd2, 0xf9, 0xbd,
  0x4d, 0x77, 0x04, 0x3d, 0xe1, 0x9b, 0xcb, 0xbe, 0xa4, 0x81, 0x77, 0x3d,
  0x6b, 0xc7, 0xf6, 0x3d, 0xd2, 0xfb, 0x14, 0xbe, 0x22, 0xef, 0x3b, 0x3e,
  0xa2, 0xec, 0x9e, 0xbe, 0x71, 0x11, 0x4f, 0x3e, 0xfd, 0x85, 0x8e, 0x3d,
  0x3d, 0xec, 0xa2, 0xbe, 0x81, 0xe0, 0xb4, 0xbe, 0x10, 0xd7, 0xd8, 0xbe,
  0x38, 0x7c, 0xb7, 0x3d, 0xc7, 0xfd, 0xe0, 0xbd, 0x16, 0x36, 0x42, 0x3e,
  0x89, 0x2e, 0xc6, 0xbd, 0x71, 0x2c, 0x94, 0x3c, 0x6f, 0x04, 0x4e, 0xbe,
  0x21, 0xe3, 0x84, 0x3d, 0x2b, 0x0a, 0xd5, 0xbc, 0x9a, 0x4f, 0x4f, 0xbe,
  0xdb, 0xa2, 0xb5, 0x3d, 0x30, 0xf4, 0x90, 0xbe, 0x1e, 0x92, 0x1e, 0x3d,
  0x64, 0xcd, 0x13, 0x3d, 0x0f, 0x3e, 0xca, 0xbd, 0xd9, 0x3a, 0x7d, 0xbe,
  0x5c, 0x8f, 0x20, 0xbf, 0x36, 0xc8, 0x9d, 0x3e, 0x61, 0xa7, 0x49, 0xbe,
  0xae, 0x24, 0xd7, 0x3d, 0xe2, 0x72, 0xa8, 0xbe, 0x05, 0x38, 0x55, 0xbd,
  0x1f, 0xec, 0xc1, 0xbd, 0xcb, 0x97, 0xe9, 0xbd, 0x84, 0x17, 0x8c, 0xbd,
  0xe9, 0x5c, 0x05, 0x3e, 0x2f, 0x93, 0x22, 0x3e, 0x7f, 0xfb, 0x8a, 0xbe,
  0xf0, 0xee, 0x25, 0xbd, 0x4f, 0x54, 0xaa, 0x3c, 0x59, 0x6e, 0xba, 0xbd,
  0x84, 0xe7, 0x0f, 0xbe, 0x34, 0x50, 0x37, 0xbf, 0x4f, 0x31, 0x9a, 0x3e,
  0x8f, 0x4a, 0x11, 0xbf, 0x61, 0xa0, 0x96, 0x3d, 0xd8, 0xe6, 0x42, 0xbe,
  0x32, 0xd3, 0xcd, 0x3d, 0x28, 0x8f, 0x58, 0xbe, 0x76, 0x53, 0x52, 0xbf,
  0xc8, 0x45, 0xd7, 0xbd, 0x7d, 0xeb, 0x6f, 0x3c, 0xb3, 0xe9, 0xa3, 0xbd,
  0x5d, 0x5a, 0xf5, 0xbe, 0x4c, 0x34, 0x9d, 0x3e, 0x06, 0x61, 0x01, 0x3c,
  0x73, 0x8c, 0x96, 0xbe, 0x40, 0x0d, 0xed, 0xbd, 0xbc, 0x60, 0x94, 0xbe,
  0x05, 0x48, 0xb6, 0x3c, 0x45, 0x37, 0x37, 0x3d, 0x11, 0x60, 0x76, 0x3d,
  0x23, 0xce, 0xdb, 0x3d, 0x60, 0x11, 0x02, 0x3f, 0x3e, 0x7a, 0x07, 0xbe,
  0x48, 0xa6, 0x05, 0x3d, 0x0b, 0x43, 0x1e, 0x3e, 0xdf, 0x16, 0x8d, 0x3e,
  0x0c, 0x78, 0x25, 0xbc, 0x84, 0x42, 0xa0, 0xbe, 0xe1, 0x00, 0x3f, 0xbc,
  0x36, 0x9e, 0x26, 0x3e, 0xcf, 0x96, 0x31, 0x3e, 0xc3, 0x33, 0xf1, 0xbd,
  0x0f, 0x12, 0xe5, 0xbd, 0x73, 0xfb, 0x6a, 0xbe, 0xbb, 0xfa, 0x7d, 0xbd,
  0x8b, 0xce, 0xbe, 0xbd, 0x28, 0xba, 0x47, 0x3e, 0x46, 0x2d, 0xe9, 0xbd,
  0x4d, 0xf9, 0x0b, 0xbd, 0xe4, 0x27, 0xb2, 0xbd, 0x80, 0xf5, 0xfc, 0xbd,
  0x05, 0x30, 0xb3, 0x3e, 0xe6, 0xaf, 0xab, 0xbe, 0x10, 0x62, 0x61, 0xbc,
  0xde, 0xd7, 0x92, 0xbc, 0xeb, 0x92, 0x3b, 0x3c, 0x20, 0x60, 0x8b, 0x3e,
  0x26, 0xa5, 0x70, 0x3d, 0xcb, 0xf3, 0x41, 0x3e, 0x63, 0x6c, 0xb4, 0xbe,
  0x84, 0x52, 0x8b, 0xbc, 0x13, 0x2b, 0x8a, 0xbe, 0x08, 0x5a, 0x45, 0x3d,
  0xc8, 0x23, 0xc1, 0x3c, 0x63, 0xfb, 0x52, 0xbd, 0x4e, 0xac, 0x75, 0x3e,
  0xd8, 0x60, 0x7a, 0x3c, 0x82, 0x86, 0x02, 0xbe, 0x5f, 0x4c, 0xad, 0xbe,
  0xbb, 0x0f, 0x0c, 0xbd, 0x90, 0x46, 0x8e, 0xbd, 0xb6, 0x3d, 0x75, 0x3d,
  0x4b, 0x50, 0x06, 0x3e, 0xe2, 0x0b, 0x66, 0xbd, 0xeb, 0x39, 0x0d, 0x3e,
  0xf2, 0x61, 0xcf, 0xbe, 0x5c, 0x3b, 0x83, 0x3e, 0x35, 0x8b, 0xe5, 0xbb,
  0x1f, 0xe5, 0x3b, 0x3d, 0x44, 0xff, 0x8f, 0xbc, 0xbe, 0x05, 0x81, 0xbc,
  0x67, 0x1d, 0xf9, 0x3e, 0x9b, 0x3d, 0x4e, 0x3e, 0x4e, 0x8a, 0x10, 0xbe,
  0x6e, 0x65, 0x6c, 0x3e, 0xe1, 0x7d, 0xc7, 0x3d, 0x38, 0x42, 0x81, 0xbe,
  0x57, 0xc1, 0x0e, 0xbe, 0xa5, 0xfb, 0xac, 0x3e, 0xe2, 0xad, 0x3a, 0x3e,
  0x8a, 0x0d, 0x87, 0x3e, 0xe0, 0xa1, 0x05, 0xbf, 0xbf, 0x2a, 0x15, 0x3e,
  0x2b, 0x62, 0x8b, 0xbd, 0xed, 0x13, 0xb6, 0x3d, 0x91, 0x4d, 0x97, 0xbe,
  0x61, 0xaa, 0x75, 0x3d, 0xea, 0xcd, 0x60, 0x3e, 0xa8, 0xa6, 0x21, 0x3c,
  0xf1, 0x7f, 0x3e, 0xbd, 0x2e, 0x1f, 0xd3, 0xbd, 0x7f, 0x29, 0x85, 0xba,
  0xad, 0x28, 0x1c, 0xbe, 0xb8, 0x6f, 0x4b, 0xbe, 0x6d, 0xe8, 0x53, 0x3e,
  0xa5, 0xf6, 0xa5, 0x3e, 0xbc, 0x88, 0x0a, 0x3e, 0x86, 0xce, 0x17, 0xbf,
  0xf0, 0xa0, 0xe4, 0x3d, 0x72, 0x4d, 0xfd, 0x3c, 0xd6, 0x25, 0xab, 0x3e,
  0xae, 0x6c, 0x14, 0xbe, 0x41, 0x0c, 0xab, 0x3c, 0x52, 0x30, 0x4d, 0xbd,
  0x01, 0x66, 0x87, 0x3d, 0x04, 0x8a, 0x3e, 0x3b, 0x4d, 0x7e, 0xb1, 0xbe,
  0x2d, 0x36, 0x17, 0x3e, 0x07, 0xbc, 0xdc, 0xbd, 0xae, 0xe4, 0x0f, 0xbe,
  0xa8, 0x0d, 0xbb, 0x3e, 0x97, 0x1b, 0xaa, 0x3e, 0x99, 0x37, 0x82, 0xbe,
  0x56, 0xd9, 0x92, 0xbe, 0x5b, 0x06, 0xc7, 0x3d, 0x4a, 0x23, 0x61, 0xbe,
  0xf9, 0x4a, 0x01, 0x3f, 0x97, 0x9c, 0xbf, 0xbd, 0x64, 0xf2, 0x19, 0xbd,
  0xa4, 0xc3, 0x9d, 0x3d, 0xcc, 0xfb, 0x79, 0xbe, 0x6f, 0x68, 0xd6, 0x3d,
  0x33, 0x45, 0x39, 0xbe, 0x01, 0x2d, 0xc2, 0x3d, 0xc8, 0x9f, 0x98, 0xbe,
  0x16, 0xd8, 0x85, 0xbe, 0x3f, 0x3b, 0xc0, 0x3e, 0xdf, 0xc7, 0x99, 0x3e,
  0xf9, 0xc2, 0x2d, 0xbe, 0xcc, 0xd3, 0x35, 0xbe, 0x8c, 0x40, 0x81, 0x3d,
  0x20, 0xe5, 0x24, 0xbd, 0x26, 0x2b, 0x36, 0xbe, 0xc3, 0x8b, 0xfd, 0xbd,
  0x87, 0xc0, 0x83, 0xbd, 0xd2, 0x21, 0x97, 0x3c, 0x22, 0x9d, 0x84, 0xbc,
  0x5e, 0x0b, 0x7e, 0xbd, 0x44, 0x7d, 0xa4, 0xbd, 0xd9, 0xe4, 0x33, 0x3d,
  0xdd, 0x9c, 0x9e, 0x3d, 0xca, 0xc3, 0x53, 0x3d, 0xf7, 0x00, 0xa7, 0xbd,
  0xad, 0xa1, 0xd7, 0xbd, 0x62, 0xfd, 0xff, 0xff, 0x10, 0x00, 0x00, 0x00,
  0x07, 0x00, 0x00, 0x00, 0x14, 0x00, 0x00, 0x00, 0x2c, 0x00, 0x00, 0x00,
  0x02, 0x00, 0x00, 0x00, 0x10, 0x00, 0x00, 0x00, 0x70, 0x00, 0x00, 0x00,
  0x17, 0x00, 0x00, 0x00, 0x73, 0x65, 0x71, 0x75, 0x65, 0x6e, 0x74, 0x69,
  0x61, 0x6c, 0x2f, 0x64, 0x65, 0x6e, 0x73, 0x65, 0x2f, 0x4d, 0x61, 0x74,
  0x4d, 0x75, 0x6c, 0x00, 0xcc, 0xfc, 0xff, 0xff, 0xd6, 0xfd, 0xff, 0xff,
  0x04, 0x00, 0x00, 0x00, 0x08, 0x00, 0x00, 0x00, 0xff, 0xff, 0xff, 0xff,
  0x70, 0x00, 0x00, 0x00, 0x00, 0x00, 0x0e, 0x00, 0x18, 0x00, 0x08, 0x00,
  0x07, 0x00, 0x0c, 0x00, 0x10, 0x00, 0x14, 0x00, 0x0e, 0x00, 0x00, 0x00,
  0x00, 0x00, 0x00, 0x02, 0x10, 0x00, 0x00, 0x00, 0x06, 0x00, 0x00, 0x00,
  0x10, 0x00, 0x00, 0x00, 0x2c, 0x00, 0x00, 0x00, 0x01, 0x00, 0x00, 0x00,
  0x02, 0x00, 0x00, 0x00, 0x18, 0x00, 0x00, 0x00, 0x73, 0x65, 0x71, 0x75,
  0x65, 0x6e, 0x74, 0x69, 0x61, 0x6c, 0x2f, 0x66, 0x6c, 0x61, 0x74, 0x74,
  0x65, 0x6e, 0x2f, 0x43, 0x6f, 0x6e, 0x73, 0x74, 0x00, 0x00, 0x00, 0x00,
  0x34, 0xfd, 0xff, 0xff, 0x3e, 0xfe, 0xff, 0xff, 0x04, 0x00, 0x00, 0x00,
  0x10, 0x00, 0x00, 0x00, 0xe0, 0x3f, 0x30, 0xc0, 0x5c, 0x79, 0x03, 0xc0,
  0xb6, 0x7f, 0xe2, 0xbd, 0x00, 0x4b, 0x06, 0x40, 0x26, 0xfe, 0xff, 0xff,
  0x10, 0x00, 0x00, 0x00, 0x05, 0x00, 0x00, 0x00, 0x10, 0x00, 0x00, 0x00,
  0x44, 0x00, 0x00, 0x00, 0x01, 0x00, 0x00, 0x00, 0x04, 0x00, 0x00, 0x00,
  0x32, 0x00, 0x00, 0x00, 0x73, 0x65, 0x71, 0x75, 0x65, 0x6e, 0x74, 0x69,
  0x61, 0x6c, 0x2f, 0x64, 0x65, 0x6e, 0x73, 0x65, 0x5f, 0x31, 0x2f, 0x42,
  0x69, 0x61, 0x73, 0x41, 0x64, 0x64, 0x2f, 0x52, 0x65, 0x61, 0x64, 0x56,
  0x61, 0x72, 0x69, 0x61, 0x62, 0x6c, 0x65, 0x4f, 0x70, 0x2f, 0x72, 0x65,
  0x73, 0x6f, 0x75, 0x72, 0x63, 0x65, 0x00, 0x00, 0xa8, 0xfd, 0xff, 0xff,
  0xb2, 0xfe, 0xff, 0xff, 0x04, 0x00, 0x00, 0x00, 0x40, 0x00, 0x00, 0x00,
  0x84, 0x2b, 0x45, 0xbd, 0x26, 0x09, 0x96, 0xbf, 0x06, 0x50, 0xc8, 0xbf,
  0x77, 0xbc, 0x39, 0x40, 0xca, 0x71, 0x2c, 0x3e, 0xc9, 0xdb, 0x29, 0x3e,
  0x42, 0xc6, 0xc3, 0x3f, 0xae, 0x41, 0xa2, 0x3f, 0x9e, 0x2a, 0xa4, 0xbf,
  0x6a, 0xe3, 0xfd, 0xbf, 0x89, 0xde, 0x13, 0xc0, 0xfb, 0xa3, 0xc9, 0x3a,
  0xe6, 0xba, 0xab, 0x3f, 0xc1, 0x77, 0xfe, 0xbf, 0x44, 0x08, 0xc5, 0x3f,
  0x6d, 0x59, 0x4b, 0xbf, 0xca, 0xfe, 0xff, 0xff, 0x10, 0x00, 0x00, 0x00,
  0x04, 0x00, 0x00, 0x00, 0x10, 0x00, 0x00, 0x00, 0x44, 0x00, 0x00, 0x00,
  0x01, 0x00, 0x00, 0x00, 0x10, 0x00, 0x00, 0x00, 0x30, 0x00, 0x00, 0x00,
  0x73, 0x65, 0x71, 0x75, 0x65, 0x6e, 0x74, 0x69, 0x61, 0x6c, 0x2f, 0x64,
  0x65, 0x6e, 0x73, 0x65, 0x2f, 0x42, 0x69, 0x61, 0x73, 0x41, 0x64, 0x64,
  0x2f, 0x52, 0x65, 0x61, 0x64, 0x56, 0x61, 0x72, 0x69, 0x61, 0x62, 0x6c,
  0x65, 0x4f, 0x70, 0x2f, 0x72, 0x65, 0x73, 0x6f, 0x75, 0x72, 0x63, 0x65,
  0x00, 0x00, 0x00, 0x00, 0x4c, 0xfe, 0xff, 0xff, 0x56, 0xff, 0xff, 0xff,
  0x04, 0x00, 0x00, 0x00, 0x40, 0x00, 0x00, 0x00, 0x60, 0x38, 0xff, 0xbe,
  0x0d, 0xac, 0xdb, 0xbe, 0x10, 0xa2, 0xaa, 0xbf, 0x2e, 0x3a, 0x11, 0xc0,
  0x11, 0x9c, 0x2b, 0x40, 0xf9, 0x06, 0xe3, 0xbd, 0xbe, 0x16, 0x3b, 0xbf,
  0x18, 0x19, 0xfb, 0xbd, 0x3a, 0x07, 0x66, 0x3c, 0x16, 0x9a, 0x83, 0x3f,
  0xf8, 0xa6, 0x2a, 0xc0, 0xd3, 0x3a, 0x89, 0xbe, 0xc7, 0xa2, 0x1f, 0xbf,
  0xe7, 0xef, 0x26, 0x3d, 0x6e, 0x67, 0x8c, 0xbe, 0xda, 0x00, 0x47, 0xbf,
  0x6e, 0xff, 0xff, 0xff, 0x10, 0x00, 0x00, 0x00, 0x03, 0x00, 0x00, 0x00,
  0x10, 0x00, 0x00, 0x00, 0x48, 0x00, 0x00, 0x00, 0x01, 0x00, 0x00, 0x00,
  0x10, 0x00, 0x00, 0x00, 0x33, 0x00, 0x00, 0x00, 0x73, 0x65, 0x71, 0x75,
  0x65, 0x6e, 0x74, 0x69, 0x61, 0x6c, 0x2f, 0x63, 0x6f, 0x6e, 0x76, 0x32,
  0x64, 0x5f, 0x31, 0x2f, 0x42, 0x69, 0x61, 0x73, 0x41, 0x64, 0x64, 0x2f,
  0x52, 0x65, 0x61, 0x64, 0x56, 0x61, 0x72, 0x69, 0x61, 0x62, 0x6c, 0x65,
  0x4f, 0x70, 0x2f, 0x72, 0x65, 0x73, 0x6f, 0x75, 0x72, 0x63, 0x65, 0x00,
  0x04, 0x00, 0x06, 0x00, 0x04, 0x00, 0x00, 0x00, 0x00, 0x00, 0x06, 0x00,
  0x08, 0x00, 0x04, 0x00, 0x06, 0x00, 0x00, 0x00, 0x04, 0x00, 0x00, 0x00,
  0x20, 0x00, 0x00, 0x00, 0xe9, 0xdd, 0x65, 0xbf, 0xaa, 0xf5, 0x4c, 0xbf,
  0xdc, 0x01, 0x85, 0xbf, 0x30, 0xaa, 0xd9, 0xbf, 0x0b, 0x93, 0xea, 0xbe,
  0x28, 0xc0, 0x91, 0xbf, 0x88, 0x33, 0x8e, 0x3e, 0x9b, 0xea, 0xae, 0xbe,
  0x00, 0x00, 0x0e, 0x00, 0x14, 0x00, 0x04, 0x00, 0x00, 0x00, 0x08, 0x00,
  0x0c, 0x00, 0x10, 0x00, 0x0e, 0x00, 0x00, 0x00, 0x10, 0x00, 0x00, 0x00,
  0x02, 0x00, 0x00, 0x00, 0x10, 0x00, 0x00, 0x00, 0x44, 0x00, 0x00, 0x00,
  0x01, 0x00, 0x00, 0x00, 0x08, 0x00, 0x00, 0x00, 0x31, 0x00, 0x00, 0x00,
  0x73, 0x65, 0x71, 0x75, 0x65, 0x6e, 0x74, 0x69, 0x61, 0x6c, 0x2f, 0x63,
  0x6f, 0x6e, 0x76, 0x32, 0x64, 0x2f, 0x42, 0x69, 0x61, 0x73, 0x41, 0x64,
  0x64, 0x2f, 0x52, 0x65, 0x61, 0x64, 0x56, 0x61, 0x72, 0x69, 0x61, 0x62,
  0x6c, 0x65, 0x4f, 0x70, 0x2f, 0x72, 0x65, 0x73, 0x6f, 0x75, 0x72, 0x63,
  0x65, 0x00, 0x00, 0x00, 0x90, 0xff, 0xff, 0xff, 0x14, 0x00, 0x18, 0x00,
  0x04, 0x00, 0x00, 0x00, 0x08, 0x00, 0x0c, 0x00, 0x10, 0x00, 0x00, 0x00,
  0x00, 0x00, 0x14, 0x00, 0x14, 0x00, 0x00, 0x00, 0x14, 0x00, 0x00, 0x00,
  0x01, 0x00, 0x00, 0x00, 0x20, 0x00, 0x00, 0x00, 0x44, 0x00, 0x00, 0x00,
  0x2c, 0x00, 0x00, 0x00, 0x04, 0x00, 0x00, 0x00, 0x01, 0x00, 0x00, 0x00,
  0x40, 0x00, 0x00, 0x00, 0x03, 0x00, 0x00, 0x00, 0x01, 0x00, 0x00, 0x00,
  0x0c, 0x00, 0x00, 0x00, 0x63, 0x6f, 0x6e, 0x76, 0x32, 0x64, 0x5f, 0x69,
  0x6e, 0x70, 0x75, 0x74, 0x00, 0x00, 0x00, 0x00, 0x04, 0x00, 0x00, 0x00,
  0xff, 0xff, 0xff, 0xff, 0x40, 0x00, 0x00, 0x00, 0x03, 0x00, 0x00, 0x00,
  0x01, 0x00, 0x00, 0x00, 0xfc, 0xff, 0xff, 0xff, 0x04, 0x00, 0x04, 0x00,
  0x04, 0x00, 0x00, 0x00
};

unsigned int model_tflite_len = 13120;// Fill the int in `src/model.cc` here